<pad>	0
<s>	0
</s>	0
<unk>	0
▁the	-2.97568
,	-3.1996
.	-3.33283
▁of	-3.53335
▁and	-3.67326
▁to	-3.70546
▁in	-3.94398
▁a	-4.30586
s	-4.54333
▁is	-4.6367
-	-4.71229
▁that	-4.73256
▁for	-4.80066
▁The	-5.14706
▁on	-5.15047
▁	-5.17792
▁-	-5.23847
▁be	-5.29311
▁are	-5.30547
▁as	-5.30937
▁financial	-5.31481
▁with	-5.36362
▁by	-5.37152
▁have	-5.37321
'	-5.52145
▁has	-5.53183
▁this	-5.63646
▁policy	-5.67373
▁will	-5.73433
▁it	-5.79654
▁we	-5.79694
▁I	-5.82124
▁at	-5.82502
▁not	-5.85292
▁from	-5.85528
▁banks	-5.94314
▁an	-5.96639
▁(	-5.97484
▁inflation	-5.97642
▁more	-6.03111
▁market	-6.03608
▁monetary	-6.03712
▁In	-6.04152
▁which	-6.04608
▁economic	-6.05614
▁growth	-6.09917
▁our	-6.12614
▁been	-6.1324
▁also	-6.14893
:	-6.18701
▁their	-6.19077
▁Bank	-6.25225
▁was	-6.26116
▁rate	-6.27035
▁economy	-6.2793
▁can	-6.31891
▁would	-6.34779
▁or	-6.36174
▁risk	-6.38414
▁its	-6.40235
▁This	-6.42177
)	-6.42799
ing	-6.44055
▁euro	-6.45611
▁these	-6.48856
▁"	-6.48887
▁stability	-6.51683
▁system	-6.55634
▁but	-6.55927
▁other	-6.56647
▁interest	-6.59354
▁rates	-6.59584
▁central	-6.60359
▁than	-6.60437
▁markets	-6.60738
▁capital	-6.62634
▁bank	-6.63768
▁should	-6.65365
▁area	-6.65582
▁banking	-6.67543
▁all	-6.6821
▁over	-6.68552
▁some	-6.69058
▁crisis	-6.71112
▁such	-6.72451
▁sector	-6.73665
▁new	-6.73807
▁global	-6.74346
▁countries	-6.74918
▁time	-6.7583
▁about	-6.76389
▁price	-6.7706
ed	-6.77475
▁risks	-6.79248
▁they	-6.80073
▁It	-6.8384
▁prices	-6.84685
▁credit	-6.85085
▁years	-6.86029
▁there	-6.86691
▁may	-6.87771
▁important	-6.89182
▁European	-6.90338
▁were	-6.90831
▁year	-6.90919
▁need	-6.92683
▁one	-6.92739
▁A	-6.93676
;	-6.94135
▁well	-6.96572
▁*	-6.97746
▁We	-6.99591
▁you	-6.99644
term	-7.0144
▁institutions	-7.03648
▁between	-7.03699
▁ECB	-7.03824
▁could	-7.055
"	-7.06872
▁high	-7.07253
▁through	-7.07483
▁so	-7.07578
▁long	-7.08873
▁As	-7.09774
▁public	-7.09901
▁level	-7.14173
▁into	-7.15271
▁only	-7.15356
▁up	-7.15387
▁low	-7.15443
▁investment	-7.15878
▁Reserve	-7.17865
▁when	-7.20266
▁demand	-7.21158
▁very	-7.21557
▁liquidity	-7.22078
▁if	-7.22441
▁international	-7.22597
▁fiscal	-7.22681
▁measures	-7.23348
▁exchange	-7.23714
▁increase	-7.23831
▁But	-7.23942
▁now	-7.24382
▁do	-7.24678
▁both	-7.25375
▁real	-7.26008
▁first	-7.26242
▁most	-7.26272
▁many	-7.26815
▁like	-7.27063
d	-7.27202
▁recent	-7.27319
S	-7.28494
▁current	-7.28648
ly	-7.30198
▁role	-7.3047
▁debt	-7.30897
e	-7.30987
▁business	-7.31414
▁services	-7.31734
/	-7.31855
▁had	-7.31863
?	-7.31953
▁two	-7.31981
▁per	-7.32369
▁future	-7.32874
▁how	-7.35002
▁framework	-7.36997
▁those	-7.3743
▁what	-7.37747
▁economies	-7.38249
▁percent	-7.38364
▁me	-7.38713
▁conditions	-7.38721
▁large	-7.39611
▁since	-7.40307
▁management	-7.40779
▁Federal	-7.40953
▁support	-7.41138
▁potential	-7.41286
t	-7.41369
▁significant	-7.42158
▁higher	-7.42363
▁further	-7.42726
▁policies	-7.42758
▁firms	-7.4278
▁must	-7.43221
▁For	-7.43416
▁Financial	-7.43918
▁no	-7.4463
▁out	-7.46445
▁even	-7.46486
▁including	-7.4703
▁data	-7.47068
▁And	-7.47716
▁developments	-7.48165
▁my	-7.48382
▁development	-7.48806
▁increased	-7.49188
▁world	-7.49189
▁regulatory	-7.49209
▁Central	-7.51549
▁expectations	-7.52282
▁past	-7.52989
▁impact	-7.53055
▁government	-7.53059
▁much	-7.53185
▁make	-7.53779
▁money	-7.54158
▁last	-7.54216
▁example	-7.55347
▁during	-7.56158
▁while	-7.56709
▁expected	-7.57256
▁work	-7.58046
▁under	-7.58415
▁take	-7.58582
▁domestic	-7.58647
▁being	-7.59452
▁effects	-7.59685
▁still	-7.60061
▁period	-7.60216
▁continue	-7.60219
▁same	-7.60433
▁key	-7.60493
▁changes	-7.60496
▁balance	-7.61259
▁process	-7.61314
▁challenges	-7.6134
n	-7.61388
▁ensure	-7.61476
▁However	-7.61532
▁target	-7.6192
▁lower	-7.62323
▁today	-7.62547
▁national	-7.63239
▁around	-7.6337
▁us	-7.63375
▁de	-7.6353
▁private	-7.63786
▁part	-7.64183
▁strong	-7.64346
▁foreign	-7.64377
▁GDP	-7.64475
▁information	-7.64492
▁way	-7.64573
▁change	-7.65357
▁asset	-7.65413
▁trade	-7.65863
▁short	-7.65979
▁due	-7.66271
▁assets	-7.6633
▁cent	-7.66352
▁any	-7.66654
▁US	-7.66971
▁non	-7.67052
▁where	-7.6776
▁2	-7.67883
▁use	-7.6791
▁Monetary	-7.68146
▁Europe	-7.68442
▁These	-7.69227
▁currency	-7.69427
▁less	-7.70159
▁made	-7.70505
▁costs	-7.70796
▁end	-7.71603
▁recovery	-7.72753
▁because	-7.72757
▁provide	-7.7305
▁country	-7.74049
▁number	-7.74635
▁them	-7.74728
▁account	-7.77512
▁There	-7.77782
▁better	-7.78508
a	-7.78517
▁Board	-7.78695
▁activity	-7.78805
▁States	-7.79732
).	-7.79919
▁funds	-7.79977
▁remain	-7.80021
▁different	-7.80153
▁reforms	-7.80178
▁lending	-7.80408
▁environment	-7.80955
▁particular	-7.81365
▁particularly	-7.81463
▁likely	-7.82518
▁levels	-7.82602
▁across	-7.82746
▁supply	-7.82857
▁become	-7.83549
▁term	-7.83832
▁necessary	-7.84332
▁EU	-7.84535
▁issues	-7.84584
▁second	-7.84585
▁loans	-7.85238
▁payments	-7.85322
er	-7.8534
▁industry	-7.86247
▁three	-7.86511
▁payment	-7.87001
▁employment	-7.87295
▁finance	-7.87498
▁To	-7.87804
▁major	-7.88394
▁point	-7.88548
▁U	-7.88798
▁At	-7.892
▁Economic	-7.89307
▁within	-7.89362
’	-7.89589
▁set	-7.89603
▁good	-7.90704
▁terms	-7.91021
▁see	-7.91657
▁factors	-7.91686
▁1	-7.92041
▁United	-7.92717
▁approach	-7.92782
en	-7.92852
▁standards	-7.92999
▁structural	-7.93676
▁just	-7.94275
▁effective	-7.94415
▁people	-7.94681
),	-7.9486
▁among	-7.95094
▁productivity	-7.95263
▁greater	-7.95837
▁help	-7.95859
▁medium	-7.96163
▁longer	-7.96579
▁after	-7.96938
▁view	-7.97033
▁before	-7.97634
▁systems	-7.98011
▁value	-7.9804
▁rise	-7.9828
▁supervision	-7.98536
▁result	-7.98551
▁address	-7.99216
▁income	-7.99483
y	-7.99604
▁S	-7.99789
▁forward	-8.0032
▁case	-8.00328
▁integration	-8.00648
▁Japan	-8.00859
▁average	-8.01329
▁already	-8.01622
▁possible	-8.01664
▁clear	-8.01687
▁labour	-8.01986
▁remains	-8.02038
▁who	-8.02154
▁shocks	-8.02391
▁course	-8.02427
▁focus	-8.02477
▁fact	-8.02498
▁supervisory	-8.02791
▁regulation	-8.03209
▁Committee	-8.03424
▁households	-8.03437
▁macroeconomic	-8.03461
▁against	-8.0374
▁too	-8.03916
▁financing	-8.03977
▁might	-8.04097
▁requirements	-8.04175
▁outlook	-8.04272
▁am	-8.04273
▁needs	-8.04326
▁share	-8.05771
▁decisions	-8.06049
▁unemployment	-8.06219
▁especially	-8.06398
▁towards	-8.06633
▁based	-8.06658
▁far	-8.06855
r	-8.06904
▁order	-8.06926
▁On	-8.06928
▁confidence	-8.07439
▁cost	-8.07502
▁does	-8.07594
▁situation	-8.08317
▁stable	-8.08723
▁few	-8.08844
▁then	-8.09431
▁emerging	-8.09872
▁uncertainty	-8.09949
▁securities	-8.10181
▁importance	-8.10248
▁therefore	-8.10419
▁efforts	-8.10429
▁3	-8.1056
▁Policy	-8.10911
▁increasing	-8.11011
▁back	-8.11065
▁here	-8.1165
▁without	-8.11695
▁M	-8.1186
▁given	-8.1211
▁billion	-8.12188
▁corporate	-8.12258
▁small	-8.12825
▁New	-8.13317
▁place	-8.13475
▁progress	-8.13579
▁basis	-8.14015
▁investors	-8.14624
▁If	-8.15088
▁decline	-8.15538
▁reduce	-8.15566
▁G	-8.15673
▁output	-8.16113
▁however	-8.16331
▁your	-8.16363
▁range	-8.16786
▁sustainable	-8.16895
▁appropriate	-8.17458
▁Let	-8.17551
▁down	-8.17726
▁companies	-8.18201
▁rules	-8.18242
es	-8.18283
▁While	-8.18587
▁taken	-8.18972
▁various	-8.1901
▁activities	-8.19553
▁C	-8.19843
▁authorities	-8.20303
▁products	-8.20599
▁early	-8.20642
▁access	-8.20832
▁improve	-8.20841
in	-8.21036
▁own	-8.21046
▁external	-8.21676
▁funding	-8.21941
▁re	-8.22073
▁means	-8.22418
to	-8.22511
▁single	-8.22516
▁used	-8.22751
▁4	-8.22918
▁whether	-8.22924
▁consumer	-8.23142
i	-8.23347
▁effect	-8.23484
▁objective	-8.24084
▁First	-8.24164
al	-8.24249
▁seen	-8.24547
▁So	-8.24811
▁benefits	-8.25056
▁addition	-8.25097
▁Council	-8.25312
▁labor	-8.25678
▁issue	-8.25841
▁crucial	-8.25966
▁significantly	-8.2607
▁Basel	-8.26119
▁main	-8.26284
▁instruments	-8.26423
▁That	-8.26519
▁months	-8.26604
▁turn	-8.26824
▁positive	-8.27207
▁participants	-8.2735
▁overall	-8.27507
▁each	-8.27539
▁Mr	-8.27946
▁10	-8.28093
▁areas	-8.28528
▁negative	-8.28678
▁several	-8.28724
▁include	-8.28741
▁climate	-8.29205
th	-8.29326
▁rather	-8.29442
▁operations	-8.29478
▁experience	-8.29484
▁able	-8.29592
▁“	-8.2975
▁increases	-8.29867
▁response	-8.29889
▁close	-8.29921
▁cannot	-8.30138
▁digital	-8.30205
▁sectors	-8.30256
▁next	-8.30303
▁difficult	-8.30316
▁5	-8.30515
▁capacity	-8.30692
▁businesses	-8.30694
▁analysis	-8.30847
▁stress	-8.31285
▁innovation	-8.31381
▁times	-8.31551
▁best	-8.31802
▁problems	-8.31926
based	-8.32037
▁available	-8.32767
▁oil	-8.33354
▁points	-8.33652
▁**	-8.33809
▁assessment	-8.33862
▁energy	-8.33951
▁housing	-8.33979
▁essential	-8.34421
o	-8.34442
▁continued	-8.34632
▁above	-8.34632
▁strategy	-8.34729
▁making	-8.34916
▁Union	-8.35163
2	-8.35286
▁often	-8.35672
▁cross	-8.3568
▁–	-8.35926
▁needed	-8.36252
▁infrastructure	-8.36372
m	-8.36561
▁thus	-8.36755
▁bonds	-8.3687
C	-8.36923
▁come	-8.37373
▁wage	-8.37955
▁implementation	-8.3798
▁lead	-8.38022
▁total	-8.38087
▁insurance	-8.3867
▁technology	-8.38812
▁consumption	-8.38851
▁decision	-8.38959
▁general	-8.38984
▁union	-8.39168
▁below	-8.39179
▁Governor	-8.39666
▁pressures	-8.40187
▁governance	-8.40348
▁competition	-8.40375
▁quarter	-8.40612
▁One	-8.4091
▁goods	-8.40922
re	-8.41032
▁transactions	-8.41342
▁net	-8.41674
▁common	-8.41769
▁context	-8.41922
▁achieve	-8.42377
▁model	-8.42675
▁know	-8.42943
▁least	-8.43074
▁China	-8.43126
▁maintain	-8.43187
▁full	-8.43221
▁resilience	-8.43591
▁relatively	-8.43808
▁reform	-8.44331
▁bond	-8.44518
▁whole	-8.44633
▁actions	-8.44722
▁models	-8.44757
▁Banking	-8.44871
▁half	-8.45001
▁spending	-8.45043
▁recently	-8.45313
▁With	-8.45434
▁working	-8.45704
▁India	-8.45887
▁research	-8.46022
▁trend	-8.46032
▁pandemic	-8.46186
▁led	-8.46277
▁mortgage	-8.46579
▁line	-8.46861
▁currently	-8.46943
▁International	-8.47059
▁rising	-8.47164
▁practices	-8.47849
▁question	-8.47916
▁start	-8.48039
▁What	-8.48437
▁present	-8.48562
▁individual	-8.4861
▁third	-8.48625
▁think	-8.48974
▁6	-8.48977
▁resources	-8.49106
▁believe	-8.49263
up	-8.49525
▁performance	-8.49717
▁look	-8.49854
▁path	-8.49967
▁why	-8.50121
▁Eurosystem	-8.50142
▁face	-8.50209
▁put	-8.50312
▁production	-8.50444
▁March	-8.50592
▁say	-8.50683
▁systemic	-8.50799
▁cash	-8.50827
▁They	-8.51166
▁pace	-8.5129
▁growing	-8.51584
▁tools	-8.51633
▁sound	-8.51832
on	-8.52305
▁extent	-8.52411
▁See	-8.52418
▁household	-8.52698
▁enhance	-8.53034
▁improved	-8.53194
▁losses	-8.53333
▁transparency	-8.53426
▁20	-8.53592
▁state	-8.53937
▁Second	-8.54003
▁return	-8.54066
▁political	-8.54246
▁loan	-8.54319
▁social	-8.54404
▁Our	-8.54428
▁provided	-8.54514
▁challenge	-8.54571
▁F	-8.54592
or	-8.54908
▁quality	-8.55013
▁opportunities	-8.55127
▁flows	-8.55143
▁ratio	-8.55175
▁additional	-8.55311
▁September	-8.55367
▁community	-8.55466
▁expansion	-8.55621
▁attention	-8.5568
▁open	-8.55747
▁related	-8.5588
",	-8.55884
▁efficiency	-8.55964
▁B	-8.56029
▁equity	-8.56056
▁R	-8.56121
▁did	-8.56181
▁problem	-8.56596
▁purchases	-8.56637
g	-8.56639
▁advanced	-8.56641
▁critical	-8.56779
▁Inflation	-8.56859
▁efficient	-8.56954
▁providing	-8.57083
▁savings	-8.57161
▁following	-8.57176
▁Government	-8.57375
▁cooperation	-8.57379
▁Moreover	-8.57401
▁pre	-8.57691
▁reserves	-8.5771
▁ability	-8.57756
▁UK	-8.57758
▁earlier	-8.5779
▁fully	-8.57871
▁together	-8.58168
▁ensuring	-8.58226
▁resolution	-8.58277
▁play	-8.58512
▁imbalances	-8.5857
▁substantial	-8.58865
▁objectives	-8.58904
▁mandate	-8.59344
▁crises	-8.59346
A	-8.59513
▁required	-8.59644
▁ahead	-8.59734
▁pressure	-8.59878
▁consistent	-8.6
▁taking	-8.60012
▁action	-8.60279
▁associated	-8.60318
▁P	-8.60319
▁concerns	-8.60678
▁adjustment	-8.60744
▁right	-8.61291
▁fall	-8.61301
▁relative	-8.61307
▁regard	-8.61323
▁National	-8.61421
▁annual	-8.61653
1	-8.61803
▁underlying	-8.62224
▁reduced	-8.62226
▁Stability	-8.62347
▁System	-8.62358
▁certain	-8.62433
▁un	-8.62441
▁Banks	-8.62494
▁hand	-8.62641
▁transition	-8.62821
▁institutional	-8.62937
▁conduct	-8.63218
▁expect	-8.63226
▁Asia	-8.63239
▁conference	-8.63318
▁always	-8.63336
▁dollar	-8.63431
▁specific	-8.6354
▁great	-8.63611
▁again	-8.63784
▁members	-8.64025
▁II	-8.64092
▁meeting	-8.64095
▁run	-8.64326
▁opportunity	-8.64594
▁degree	-8.64634
▁12	-8.64643
▁Market	-8.64767
▁maintaining	-8.64782
▁tax	-8.64784
▁volatility	-8.64983
▁June	-8.64987
border	-8.65053
▁another	-8.65277
▁commercial	-8.65386
▁leading	-8.65777
The	-8.65807
▁reducing	-8.66299
▁perspective	-8.66471
▁region	-8.66478
▁D	-8.66695
▁though	-8.66742
▁structure	-8.66947
▁position	-8.67106
▁service	-8.6712
▁job	-8.67147
▁IMF	-8.67246
▁core	-8.67361
▁exports	-8.67395
▁T	-8.67608
▁evidence	-8.67712
▁said	-8.67974
▁relevant	-8.68042
▁limited	-8.68178
▁speech	-8.68346
▁E	-8.68424
▁Islamic	-8.68631
▁side	-8.68844
▁ago	-8.68846
▁developed	-8.68991
▁implications	-8.69018
▁An	-8.69251
▁size	-8.69354
▁percentage	-8.69369
▁legal	-8.69433
▁robust	-8.6972
▁create	-8.69774
▁review	-8.69818
▁requires	-8.69901
year	-8.70303
▁la	-8.70363
▁October	-8.70402
▁broad	-8.7056
▁want	-8.70746
▁keep	-8.70765
▁December	-8.708
▁avoid	-8.70828
▁form	-8.70843
b	-8.7119
▁trading	-8.71386
▁using	-8.71498
▁nature	-8.71504
▁similar	-8.71508
▁Fed	-8.71636
▁stock	-8.71718
▁deficit	-8.72182
▁Canada	-8.72205
▁direct	-8.72248
20	-8.72704
▁almost	-8.72886
▁Finance	-8.72988
▁population	-8.73029
▁clearly	-8.73097
▁sheet	-8.73385
▁transmission	-8.73495
▁complex	-8.73561
▁Governing	-8.73673
▁increasingly	-8.73797
▁Member	-8.73923
▁consider	-8.73977
▁promote	-8.74057
▁supervisors	-8.74083
▁generally	-8.74244
▁7	-8.74343
▁'	-8.74461
▁having	-8.74638
▁contribute	-8.74794
▁investments	-8.74884
▁affect	-8.7491
▁compared	-8.74927
▁strengthen	-8.74935
▁understanding	-8.74954
▁local	-8.75002
▁January	-8.75014
▁initiatives	-8.75048
▁control	-8.75139
▁15	-8.75335
▁regional	-8.75832
▁When	-8.75925
▁meet	-8.75974
▁respect	-8.76037
▁understand	-8.7611
▁education	-8.76123
▁Report	-8.76136
the	-8.76184
▁ongoing	-8.76191
▁stance	-8.76397
▁easing	-8.76475
▁8	-8.76477
▁quite	-8.76607
▁Indeed	-8.76658
▁highly	-8.77178
▁improving	-8.77243
**	-8.77302
▁amount	-8.77373
▁let	-8.77566
▁Since	-8.77636
▁although	-8.77736
▁reason	-8.77754
ation	-8.77815
▁guidance	-8.78399
▁developing	-8.78455
▁build	-8.78469
▁affected	-8.7852
▁indicators	-8.78769
▁Some	-8.79128
▁governments	-8.79162
▁staff	-8.79267
▁April	-8.79421
▁stronger	-8.79432
▁1990	-8.7953
,"	-8.79606
▁prevent	-8.79717
▁move	-8.79924
▁commitment	-8.80146
▁forecast	-8.80221
▁operational	-8.80502
▁post	-8.80583
▁regulations	-8.8061
▁rapid	-8.80637
▁19	-8.80761
▁subject	-8.8077
▁By	-8.80886
▁develop	-8.809
▁sovereign	-8.81009
▁benefit	-8.81033
▁macroprudential	-8.81199
▁South	-8.81545
▁regulators	-8.8166
▁customers	-8.81937
▁internal	-8.81981
▁fixed	-8.8203
▁No	-8.82169
▁require	-8.82248
▁Commission	-8.82347
▁despite	-8.82423
▁go	-8.82461
▁beyond	-8.82487
▁cycle	-8.8253
▁allow	-8.82535
▁shows	-8.82831
P	-8.82926
▁primary	-8.82929
c	-8.82985
▁itself	-8.83059
▁factor	-8.83196
▁settlement	-8.83204
▁his	-8.83375
▁reduction	-8.83454
▁deposit	-8.83504
▁functioning	-8.83588
".	-8.83669
▁collateral	-8.83688
▁remained	-8.83723
▁give	-8.83754
▁weak	-8.83807
▁remarks	-8.83948
▁macro	-8.83967
▁yet	-8.84087
▁nominal	-8.84126
▁firm	-8.84176
▁Act	-8.84208
▁existing	-8.84224
▁deposits	-8.84285
▁consumers	-8.84438
▁provides	-8.84445
▁report	-8.84501
▁manage	-8.84609
3	-8.851
▁Global	-8.85139
▁aim	-8.85322
▁retail	-8.85353
▁done	-8.85762
▁May	-8.85809
▁success	-8.85882
▁communication	-8.85923
f	-8.86226
▁little	-8.86228
▁improvement	-8.86799
▁aggregate	-8.86944
▁institution	-8.86955
▁responsibility	-8.8727
▁measure	-8.87289
▁November	-8.8735
able	-8.87522
▁home	-8.87819
▁results	-8.88017
▁mainly	-8.88326
▁decade	-8.88331
▁million	-8.88465
▁Germany	-8.88469
▁regime	-8.88722
▁held	-8.88837
▁reasons	-8.88885
▁instance	-8.88938
▁All	-8.89238
▁contributed	-8.89241
▁borrowers	-8.8941
▁leverage	-8.89459
ity	-8.89807
▁inclusion	-8.90001
▁Although	-8.90014
▁driven	-8.90101
▁Ladies	-8.9015
▁raise	-8.90438
▁Thank	-8.90466
▁ways	-8.9061
▁wages	-8.90658
▁events	-8.90661
▁gap	-8.90773
▁larger	-8.90856
▁programme	-8.90903
▁11	-8.9118
▁consequences	-8.91274
▁established	-8.91463
▁J	-8.91563
▁trust	-8.91644
▁building	-8.91767
▁workers	-8.91811
▁e	-8.91823
st	-8.91988
▁competitiveness	-8.92051
▁L	-8.92071
▁until	-8.92074
M	-8.92112
▁discussion	-8.92132
▁introduction	-8.92139
▁bring	-8.92402
▁find	-8.92732
▁N	-8.92769
▁going	-8.92917
▁pay	-8.9297
▁independence	-8.93405
▁shock	-8.93438
▁event	-8.93469
▁effectively	-8.93485
▁broader	-8.93499
▁supported	-8.93563
▁Asian	-8.93581
G	-8.93626
▁others	-8.93761
▁standard	-8.94226
▁mechanism	-8.94342
▁July	-8.94343
▁food	-8.94553
▁once	-8.94647
▁member	-8.94809
▁Speech	-8.94824
▁security	-8.95037
▁questions	-8.95333
▁excessive	-8.95431
▁federal	-8.95512
▁closely	-8.95546
▁forecasts	-8.95843
▁recession	-8.95889
▁largely	-8.95946
▁previous	-8.95988
▁coming	-8.96018
ers	-8.96041
▁incentives	-8.96078
▁cases	-8.96103
▁Riksbank	-8.96139
▁gradually	-8.9622
▁implemented	-8.96221
F	-8.96386
▁shown	-8.96679
and	-8.96861
▁show	-8.9697
▁four	-8.96971
l	-8.97009
▁9	-8.97213
▁function	-8.97235
▁circumstances	-8.97283
▁lack	-8.97355
▁accounts	-8.97398
▁Chart	-8.97489
▁mean	-8.97591
▁reflect	-8.97619
▁creation	-8.97836
▁contribution	-8.97923
▁off	-8.9799
▁18	-8.98055
▁competitive	-8.98109
▁loss	-8.98214
▁currencies	-8.98258
▁force	-8.98376
▁borrowing	-8.98428
▁supporting	-8.98474
▁der	-8.98501
▁act	-8.98558
▁flexibility	-8.98591
▁step	-8.98852
▁Fund	-8.98882
▁inflationary	-8.98978
▁strengthening	-8.99015
▁considerable	-8.99237
▁somewhat	-8.99283
▁continues	-8.99679
▁influence	-8.99732
▁prudential	-8.99842
▁goal	-8.99994
▁fund	-9.00056
▁co	-9.0008
▁successful	-9.00205
▁setting	-9.00345
▁product	-9.00346
▁policymakers	-9.00362
bank	-9.00401
▁achieved	-9.00678
▁sufficient	-9.00704
▁discuss	-9.00834
▁Euro	-9.00915
▁beginning	-9.00915
▁2008	-9.0111
▁FOMC	-9.01166
▁five	-9.01828
▁concern	-9.02062
▁scenario	-9.02155
▁started	-9.02308
▁decades	-9.02513
▁wealth	-9.02529
▁power	-9.02639
▁participation	-9.02662
▁words	-9.02818
▁commodity	-9.02995
▁Conference	-9.03027
▁every	-9.03447
▁World	-9.03826
▁prospects	-9.03832
▁tightening	-9.0384
▁H	-9.03854
▁sustained	-9.03865
▁assess	-9.03885
▁protection	-9.03942
▁trends	-9.04055
▁manner	-9.04066
▁hold	-9.04194
▁text	-9.04305
▁shift	-9.04323
-19	-9.04432
▁scale	-9.04467
▁get	-9.04511
it	-9.04969
▁2%	-9.04982
▁thereby	-9.05036
▁principles	-9.05049
▁suggest	-9.05082
▁comprehensive	-9.05278
▁mentioned	-9.05282
▁themselves	-9.05329
▁mid	-9.05335
▁introduced	-9.05399
related	-9.05583
▁jobs	-9.05682
▁history	-9.05779
▁normal	-9.05877
▁technological	-9.05914
▁views	-9.05936
▁seems	-9.0602
▁President	-9.06094
ion	-9.06469
▁quickly	-9.06493
▁yield	-9.06565
▁he	-9.06605
B	-9.06783
▁Over	-9.06793
▁adjustments	-9.06809
▁declined	-9.06944
▁pp	-9.07108
▁budget	-9.07234
▁achieving	-9.07448
▁zero	-9.0747
▁group	-9.07477
▁near	-9.07508
."	-9.07549
▁issued	-9.07861
▁traditional	-9.07999
an	-9.08032
▁purchase	-9.08076
▁later	-9.08104
▁sheets	-9.0816
▁gains	-9.08235
▁created	-9.08305
▁convergence	-9.08414
▁die	-9.08523
▁changing	-9.08598
▁directly	-9.08613
▁rapidly	-9.08617
▁largest	-9.0864
▁monitoring	-9.08646
▁agencies	-9.08843
▁Africa	-9.0895
▁February	-9.08982
▁bankers	-9.09061
▁Treasury	-9.09067
▁Thus	-9.09231
▁targeting	-9.0941
▁things	-9.09491
▁sustainability	-9.0952
▁Such	-9.09626
▁natural	-9.09683
▁Re	-9.09819
▁credibility	-9.10022
▁Today	-9.10294
▁late	-9.10423
▁Growth	-9.10552
▁adverse	-9.10729
▁moderate	-9.1076
▁Finally	-9.10776
▁suggests	-9.10854
as	-9.10873
▁severe	-9.11095
▁aims	-9.1119
▁consolidation	-9.1124
▁Return	-9.11315
▁Review	-9.11402
▁considered	-9.11416
▁0	-9.11443
▁Of	-9.11531
▁August	-9.11689
▁hope	-9.11752
▁practice	-9.1189
▁published	-9.11977
▁project	-9.12179
▁fundamental	-9.12325
▁projections	-9.1238
▁adopted	-9.12556
▁portfolio	-9.12614
▁K	-9.12627
▁Despite	-9.12738
▁day	-9.12759
▁steps	-9.12782
▁regarding	-9.12912
▁debate	-9.13029
▁rule	-9.13058
▁deal	-9.13072
▁temporary	-9.13097
▁CPI	-9.1319
▁paper	-9.13197
▁25	-9.13225
▁30	-9.13272
▁enough	-9.1333
▁resilient	-9.13411
▁society	-9.13518
▁source	-9.13827
▁sense	-9.14147
▁knowledge	-9.14251
▁Governors	-9.14421
▁relationship	-9.14557
ve	-9.14604
I	-9.14768
▁doing	-9.14824
▁16	-9.14905
▁slowdown	-9.14978
D	-9.15152
▁wide	-9.15318
▁Australia	-9.15331
▁involved	-9.15335
▁compliance	-9.15463
▁thank	-9.15525
▁Given	-9.15535
▁facing	-9.15619
▁effectiveness	-9.15636
▁solutions	-9.15644
▁facilitate	-9.15714
▁processes	-9.15788
▁outside	-9.15822
▁indeed	-9.15838
▁Kong	-9.15953
▁behind	-9.16032
▁estimates	-9.1627
▁plans	-9.1635
▁sources	-9.16778
▁final	-9.16832
▁flexible	-9.16839
▁offer	-9.17073
▁found	-9.17107
▁Sweden	-9.17128
▁repo	-9.17403
▁probably	-9.17431
▁Hong	-9.17449
▁latest	-9.17512
▁sharp	-9.17567
▁More	-9.17585
▁addressing	-9.17603
▁14	-9.17653
▁grow	-9.17967
▁promoting	-9.17998
▁minimum	-9.18131
▁true	-9.18317
▁yields	-9.18415
▁enhancing	-9.18462
▁strategies	-9.18503
E	-9.18609
u	-9.18693
▁welcome	-9.18728
▁technologies	-9.18756
ar	-9.18924
▁house	-9.18961
▁scope	-9.19021
▁base	-9.19303
▁provision	-9.19475
▁certainly	-9.19516
▁slow	-9.19531
▁law	-9.19632
▁groups	-9.19636
▁makes	-9.1991
▁curve	-9.20233
run	-9.20256
▁helped	-9.2026
▁active	-9.20322
▁W	-9.2048
▁principle	-9.2054
▁downward	-9.20797
▁task	-9.20807
▁Italy	-9.20833
▁decided	-9.20858
▁outcomes	-9.20883
▁became	-9.20996
▁survey	-9.21053
▁life	-9.21067
▁either	-9.21132
4	-9.21165
▁includes	-9.21342
▁Malaysia	-9.21472
▁enhanced	-9.21921
▁experienced	-9.22003
▁phase	-9.22034
▁creating	-9.22108
▁2007	-9.22133
▁improvements	-9.22136
▁potentially	-9.22333
▁hard	-9.22399
▁dynamics	-9.22415
▁design	-9.22443
▁arrangements	-9.22446
▁differences	-9.22681
ll	-9.22843
▁program	-9.22845
▁signs	-9.22869
le	-9.23026
▁customer	-9.23183
▁along	-9.23374
▁raised	-9.23466
▁Credit	-9.23545
▁13	-9.23654
▁states	-9.23708
▁safety	-9.23725
▁York	-9.23749
▁Another	-9.23794
▁Singapore	-9.23803
▁plan	-9.23815
▁big	-9.23859
▁17	-9.23955
▁Paper	-9.24044
▁Therefore	-9.24058
▁independent	-9.24158
▁en	-9.24292
at	-9.24415
▁goals	-9.24474
▁vulnerabilities	-9.24481
Chart	-9.24498
▁explain	-9.24516
▁reached	-9.24532
▁discipline	-9.24575
▁Executive	-9.24783
▁frameworks	-9.24835
▁entities	-9.24963
▁sure	-9.25358
▁i	-9.25415
▁operating	-9.25455
▁How	-9.25677
▁behaviour	-9.25691
▁integrated	-9.25725
▁special	-9.25815
ness	-9.25848
▁historical	-9.2593
▁ultimately	-9.26101
▁conducted	-9.26115
▁From	-9.26182
▁Capital	-9.26258
▁respond	-9.26417
▁failure	-9.26561
▁England	-9.2658
p	-9.26593
▁note	-9.26621
▁faced	-9.26697
▁reflected	-9.26803
▁Even	-9.27169
▁direction	-9.27271
▁gentlemen	-9.27318
▁responsible	-9.27454
▁changed	-9.27459
▁free	-9.27605
▁conclude	-9.27777
h	-9.27809
▁After	-9.27824
▁projects	-9.27954
▁implement	-9.27965
▁gradual	-9.28021
▁human	-9.28473
▁encourage	-9.28548
making	-9.2861
▁III	-9.28642
]	-9.28709
▁perhaps	-9.28749
▁reflects	-9.28792
▁reach	-9.28801
▁lessons	-9.28851
k	-9.2886
▁light	-9.28865
▁2020	-9.28967
ment	-9.28979
▁observed	-9.2908
▁aimed	-9.29239
▁faster	-9.29279
▁strength	-9.29367
.1	-9.29401
▁aspects	-9.29437
▁Economics	-9.29609
▁accounting	-9.2965
▁flow	-9.29771
▁limit	-9.29952
▁1980	-9.29988
▁reserve	-9.30054
▁focused	-9.3014
▁export	-9.30183
▁raising	-9.30336
▁coordination	-9.30586
▁health	-9.30667
▁Ireland	-9.30734
▁spread	-9.30885
▁2000	-9.30916
w	-9.30941
▁safe	-9.31126
▁toward	-9.31157
▁ten	-9.31242
▁channels	-9.31373
▁exposures	-9.31443
el	-9.31524
:**	-9.31534
crisis	-9.31701
▁agenda	-9.31702
▁matter	-9.31751
▁field	-9.31851
▁useful	-9.31875
▁smaller	-9.31947
▁Swiss	-9.3196
▁possibility	-9.32143
▁Third	-9.32151
▁began	-9.32392
▁Working	-9.32416
▁adoption	-9.3258
▁distribution	-9.3259
▁EMU	-9.32789
▁Many	-9.32809
▁pension	-9.33103
▁contrast	-9.33171
▁technical	-9.33265
▁adequate	-9.33305
▁rest	-9.33346
▁excess	-9.33528
▁timely	-9.33654
▁und	-9.33765
▁actual	-9.33772
▁mind	-9.33778
▁broadly	-9.3382
▁2009	-9.3391
▁COVID	-9.33919
▁finances	-9.33941
▁mitigate	-9.33984
▁tend	-9.33986
▁reflecting	-9.34077
▁elements	-9.34147
▁contributing	-9.34255
▁committed	-9.34302
co	-9.34334
▁projected	-9.34364
▁f	-9.34383
▁looking	-9.34557
time	-9.34652
▁trillion	-9.34707
▁month	-9.3482
▁holding	-9.34911
▁designed	-9.34915
▁21	-9.34918
▁alternative	-9.35032
▁France	-9.35053
▁derivatives	-9.35065
▁enterprises	-9.35065
▁identify	-9.35114
▁estate	-9.35277
▁talk	-9.35333
▁stimulus	-9.3543
▁BSP	-9.35455
▁2010	-9.35511
▁index	-9.35589
▁mechanisms	-9.35666
▁manufacturing	-9.35778
▁My	-9.35864
▁discussions	-9.35895
▁profitability	-9.35922
▁appear	-9.3593
▁positions	-9.35985
▁serve	-9.36023
▁ratios	-9.36026
5	-9.36096
▁Greece	-9.36205
▁stage	-9.36208
T	-9.36255
▁Furthermore	-9.36333
▁channel	-9.36852
▁forces	-9.37185
▁50	-9.37202
▁statistics	-9.37473
un	-9.37569
ci	-9.37618
▁deficits	-9.37656
▁Risk	-9.37708
▁industries	-9.37759
▁Annual	-9.37882
▁upward	-9.37934
▁took	-9.38062
▁functions	-9.38081
▁wish	-9.38124
▁managing	-9.38163
financial	-9.38659
▁seem	-9.38982
▁simple	-9.3901
▁monitor	-9.39013
prudential	-9.39043
▁stakeholders	-9.39137
▁profits	-9.39173
▁property	-9.39257
▁via	-9.39308
▁productive	-9.39392
▁resulting	-9.39489
▁Business	-9.39506
▁begin	-9.39622
▁estimated	-9.39684
▁aware	-9.39823
H	-9.39986
▁players	-9.40006
▁effort	-9.40037
▁substantially	-9.40044
▁becoming	-9.40145
▁brought	-9.40175
▁followed	-9.40222
ive	-9.4024
://	-9.40308
▁burden	-9.4037
is	-9.40445
▁call	-9.40448
▁returns	-9.40511
▁saving	-9.40578
▁slightly	-9.40819
▁lot	-9.40838
▁expand	-9.40985
et	-9.40988
▁upon	-9.40996
▁transformation	-9.41033
▁simply	-9.41122
L	-9.41223
▁horizon	-9.41331
▁known	-9.41372
▁movements	-9.41418
▁ever	-9.41434
▁oversight	-9.4149
▁types	-9.41541
R	-9.41655
U	-9.41673
▁abroad	-9.41725
▁serious	-9.41726
▁Zealand	-9.41812
▁intermediation	-9.41942
▁micro	-9.41978
▁2019	-9.42097
▁cause	-9.423
▁self	-9.42394
▁2022	-9.42411
▁official	-9.42476
▁citizens	-9.42484
▁skills	-9.42542
▁authority	-9.42552
▁German	-9.42616
▁appears	-9.42838
▁uncertainties	-9.4284
▁cyclical	-9.42926
▁Journal	-9.43009
▁innovative	-9.43077
▁liabilities	-9.43077
▁approaches	-9.43118
▁discussed	-9.43403
▁accommodative	-9.43546
▁reporting	-9.43566
▁green	-9.43883
▁persistent	-9.43972
▁comes	-9.43975
▁industrial	-9.44036
▁African	-9.44046
responsibilities	-9.44052
W	-9.44219
▁vital	-9.44452
▁challenging	-9.44551
▁caused	-9.44656
▁called	-9.44724
▁During	-9.44727
▁quantitative	-9.44829
▁adjust	-9.44844
▁partly	-9.4485
▁personal	-9.44876
▁Development	-9.4501
▁smooth	-9.45052
▁Research	-9.45176
▁clearing	-9.45228
▁rose	-9.45297
▁structures	-9.45337
▁features	-9.45417
▁declining	-9.45471
▁played	-9.45478
▁proposed	-9.45884
▁pricing	-9.45908
▁favourable	-9.45985
▁2015	-9.46186
▁O	-9.46252
▁Albania	-9.4642
▁periods	-9.46449
▁parts	-9.46507
▁boost	-9.46639
▁noted	-9.46682
▁advantage	-9.4669
▁basic	-9.46853
▁resource	-9.46929
▁solid	-9.46974
▁limits	-9.46981
▁American	-9.47064
▁primarily	-9.47105
▁actually	-9.4711
▁something	-9.4723
▁providers	-9.47242
▁moving	-9.47345
il	-9.47383
▁2016	-9.47496
▁series	-9.47531
▁individuals	-9.47613
▁2014	-9.47665
▁RBI	-9.47831
▁continuing	-9.47834
▁De	-9.47972
▁allocation	-9.48011
0	-9.48184
▁days	-9.48287
▁University	-9.48353
▁allowed	-9.48355
▁operate	-9.48394
▁protect	-9.48462
▁uncertain	-9.48652
▁Single	-9.48658
▁BIS	-9.4868
▁sales	-9.48727
▁2013	-9.48772
▁enable	-9.48801
ic	-9.48836
▁depend	-9.48862
called	-9.48962
▁deliver	-9.49056
▁Recent	-9.4906
▁1.	-9.49094
▁bound	-9.4922
▁throughout	-9.49239
▁outcome	-9.49276
▁falling	-9.49345
▁fallen	-9.49345
us	-9.49375
▁establishment	-9.49647
de	-9.49762
▁nearly	-9.49863
▁According	-9.50119
▁implementing	-9.50141
7	-9.50287
age	-9.50401
▁et	-9.50452
▁deflation	-9.50454
▁instability	-9.50544
▁away	-9.50779
off	-9.50827
▁evolution	-9.50906
la	-9.50931
▁restructuring	-9.50953
▁expenditure	-9.50958
isation	-9.50984
▁liquid	-9.51137
▁record	-9.51156
▁Conclusion	-9.51238
▁legislation	-9.51247
▁construction	-9.51304
▁constraints	-9.51323
▁programs	-9.51324
▁strongly	-9.51381
▁appreciation	-9.51383
▁worth	-9.51404
▁2021	-9.51436
▁con	-9.51501
▁Institute	-9.51579
▁tool	-9.51598
▁Group	-9.516
▁transparent	-9.51665
▁network	-9.51697
▁strategic	-9.51697
▁balanced	-9.51863
▁speak	-9.51909
ne	-9.52026
▁pleasure	-9.52044
▁living	-9.52047
▁risen	-9.52069
▁extended	-9.52193
▁You	-9.52217
▁concerned	-9.52286
▁announced	-9.52296
▁exposure	-9.52371
▁turmoil	-9.52379
▁100	-9.52387
▁electronic	-9.5245
▁initial	-9.52537
▁issuance	-9.52542
▁agents	-9.52619
▁affecting	-9.52666
▁targets	-9.52681
▁culture	-9.52701
▁He	-9.5271
▁six	-9.52731
▁boom	-9.52759
z	-9.52785
▁y	-9.52819
▁availability	-9.53197
▁top	-9.53316
▁necessarily	-9.53393
O	-9.53433
▁1970	-9.53453
▁foster	-9.53465
▁starting	-9.53487
▁dynamic	-9.53663
▁values	-9.53712
▁purpose	-9.53767
▁responses	-9.53788
▁managed	-9.53808
▁requirement	-9.53918
▁fluctuations	-9.54015
▁Treaty	-9.54036
▁2018	-9.54056
▁Bundesbank	-9.54208
▁transaction	-9.54216
▁Association	-9.54398
▁defined	-9.5445
▁date	-9.5453
▁cut	-9.54541
▁entire	-9.54561
▁lenders	-9.54627
▁2017	-9.54706
▁que	-9.54713
▁partners	-9.54873
▁topic	-9.54918
▁http	-9.54922
▁statement	-9.54946
▁buffers	-9.55031
rate	-9.55035
▁easy	-9.55447
▁reference	-9.55489
▁accountability	-9.5555
▁surplus	-9.55674
▁controls	-9.55703
▁follow	-9.55732
▁globalisation	-9.55754
▁Chairman	-9.55807
▁2011	-9.55812
▁answer	-9.55821
▁maturity	-9.55868
▁d	-9.55935
▁came	-9.55975
▁sharing	-9.55994
▁left	-9.56015
▁[	-9.56046
www	-9.56069
▁instrument	-9.56165
▁alone	-9.5619
▁fell	-9.56226
.2	-9.56342
▁encouraging	-9.564
▁included	-9.56449
▁expanded	-9.56512
▁sub	-9.56534
▁Indian	-9.56603
▁transfer	-9.56613
▁V	-9.56627
▁momentum	-9.56696
▁globally	-9.5689
▁takes	-9.56899
▁credible	-9.56908
▁banknotes	-9.56932
▁organizations	-9.5695
▁don	-9.57008
▁test	-9.57139
▁mortgages	-9.57177
▁invest	-9.5733
▁background	-9.57339
▁economists	-9.57377
▁wider	-9.57423
▁Swedish	-9.57435
▁strengthened	-9.57535
▁downside	-9.57541
▁namely	-9.57695
▁difficulties	-9.57726
▁definition	-9.57737
▁sharply	-9.5783
▁spreads	-9.57895
▁Australian	-9.57983
te	-9.5807
▁Washington	-9.58415
▁according	-9.58421
▁priority	-9.58474
▁Forum	-9.58521
▁Markets	-9.58564
▁inflows	-9.58599
▁inter	-9.58603
▁depends	-9.58798
est	-9.58878
▁downturn	-9.58936
▁2012	-9.58989
▁Supervisory	-9.58993
▁Dr	-9.59079
▁intermediaries	-9.59159
▁innovations	-9.59181
▁complete	-9.59285
▁vulnerable	-9.59359
▁identified	-9.59379
▁collaboration	-9.59439
▁Under	-9.59452
se	-9.59505
▁adopt	-9.59558
▁sometimes	-9.59622
ro	-9.599
▁agreement	-9.59931
.4	-9.59993
▁State	-9.60104
▁considering	-9.60113
▁century	-9.6019
▁kind	-9.60214
▁default	-9.60373
▁initiative	-9.60474
▁study	-9.60593
me	-9.60715
ber	-9.60748
▁prepared	-9.60768
▁2023	-9.60841
▁recommendations	-9.60899
ten	-9.61004
▁room	-9.61044
▁Supervision	-9.61178
side	-9.61249
▁Canadian	-9.61341
▁doubt	-9.61491
K	-9.61494
▁company	-9.61505
▁moment	-9.61507
▁maximum	-9.61805
▁maintained	-9.61812
▁considerably	-9.61818
▁des	-9.61838
▁volume	-9.6196
▁combination	-9.62188
▁investor	-9.62249
▁unique	-9.62388
▁pro	-9.62523
▁holdings	-9.6255
▁shall	-9.62573
▁fair	-9.62617
▁keeping	-9.62672
▁Norway	-9.62824
▁disclosure	-9.629
▁Great	-9.62929
ir	-9.62997
▁Looking	-9.63075
▁apply	-9.63121
▁regions	-9.63173
▁training	-9.63224
▁agreed	-9.63392
▁assistance	-9.63407
▁Source	-9.63416
▁facilities	-9.63426
▁never	-9.6347
▁shared	-9.63505
▁type	-9.63641
▁Spain	-9.63656
▁landscape	-9.63677
▁addressed	-9.63695
▁considerations	-9.6376
▁imports	-9.63761
ch	-9.63793
▁counter	-9.63819
▁procedures	-9.63831
.3	-9.63881
▁whose	-9.639
▁measured	-9.63999
▁widely	-9.64057
▁Q	-9.64082
▁poor	-9.64202
▁IT	-9.64245
▁2.	-9.64314
▁speed	-9.64375
▁refinancing	-9.64392
ur	-9.64392
income	-9.6448
▁Survey	-9.64632
▁allowing	-9.64664
▁Nevertheless	-9.64728
▁saw	-9.64752
wide	-9.64823
▁Deputy	-9.64833
▁difference	-9.64839
▁outstanding	-9.6491
▁unprecedented	-9.65088
▁estimate	-9.65125
▁consensus	-9.65257
▁revised	-9.65259
▁focusing	-9.65339
▁allows	-9.65455
▁element	-9.65508
▁Gentlemen	-9.65555
▁card	-9.65569
▁modern	-9.65581
▁40	-9.65686
▁jurisdictions	-9.65906
▁thought	-9.65928
ti	-9.65946
▁draw	-9.66333
ri	-9.66338
▁hit	-9.66339
▁thinking	-9.66471
▁highlighted	-9.66515
▁lines	-9.6655
▁pose	-9.66594
▁options	-9.66964
▁typically	-9.66993
▁3.	-9.67095
iv	-9.67123
▁Investment	-9.67188
▁instead	-9.67296
▁Now	-9.67348
▁regular	-9.67449
▁remaining	-9.67476
▁soon	-9.67505
os	-9.67527
▁resulted	-9.67536
▁planning	-9.67605
▁solution	-9.67607
▁matters	-9.67616
▁SNB	-9.67683
▁weaker	-9.67775
▁gross	-9.67834
▁import	-9.68005
▁formal	-9.68025
▁becomes	-9.6812
▁colleagues	-9.6812
▁closer	-9.68228
▁tensions	-9.68309
▁establish	-9.68321
▁assessing	-9.6838
▁expanding	-9.6866
▁soundness	-9.6868
▁peak	-9.68684
▁communities	-9.6876
▁22	-9.68892
▁employees	-9.69009
ent	-9.69135
▁l	-9.69184
▁carefully	-9.69226
▁previously	-9.69405
▁overseas	-9.69444
ter	-9.69567
▁Parliament	-9.69593
▁al	-9.69687
▁idea	-9.69781
▁proposal	-9.69885
▁Regulation	-9.69961
ise	-9.69966
▁intervention	-9.69979
▁scenarios	-9.70052
▁pass	-9.70093
▁built	-9.70123
▁proposals	-9.70314
▁highest	-9.70317
▁criteria	-9.70625
▁complexity	-9.70638
▁Figure	-9.70647
▁ex	-9.70652
.6	-9.70683
▁age	-9.70735
▁indicate	-9.70746
▁anchor	-9.70779
▁Fiscal	-9.70804
▁Introduction	-9.7086
▁fundamentals	-9.70904
▁Exchange	-9.71028
▁exercise	-9.71204
▁equilibrium	-9.71418
▁behavior	-9.71425
ary	-9.7146
▁earnings	-9.71479
▁press	-9.71485
▁Rate	-9.71661
▁applied	-9.71703
▁volatile	-9.71933
▁adapt	-9.71965
▁contributions	-9.72032
▁guarantee	-9.7205
▁el	-9.72085
▁quarters	-9.72112
▁evolving	-9.72128
▁presented	-9.72366
▁intended	-9.7237
▁picture	-9.72411
▁linked	-9.72464
▁depreciation	-9.72548
▁extremely	-9.72577
▁concept	-9.72639
▁launched	-9.72661
▁determined	-9.72709
▁add	-9.72777
▁worked	-9.728
▁launch	-9.72834
▁managers	-9.72855
▁summer	-9.72894
▁rating	-9.72975
▁prosperity	-9.73076
▁internationally	-9.7322
▁deep	-9.73239
▁guidelines	-9.7328
▁assessments	-9.73295
ge	-9.73514
man	-9.7355
ant	-9.73585
▁Yet	-9.73635
ra	-9.73731
▁2006	-9.73788
of	-9.73965
▁meetings	-9.7405
▁briefly	-9.7415
▁highlight	-9.74159
▁week	-9.74276
▁mobile	-9.745
end	-9.74577
▁Authority	-9.7458
▁24	-9.74638
▁wholesale	-9.7477
▁%	-9.74797
▁stand	-9.74797
▁latter	-9.7484
taking	-9.74898
▁Public	-9.75019
▁Other	-9.75038
▁seek	-9.75042
▁prior	-9.75264
▁war	-9.7532
▁actively	-9.75373
▁Management	-9.75408
▁condition	-9.75565
▁dis	-9.75636
▁figures	-9.75695
▁forms	-9.75727
▁front	-9.75774
▁buffer	-9.76151
▁component	-9.76175
▁provisions	-9.76216
▁cover	-9.76265
▁cyber	-9.76295
▁East	-9.7637
▁experiences	-9.76378
▁regulated	-9.76399
▁b	-9.7655
▁SMEs	-9.76708
▁requiring	-9.76724
▁profit	-9.76965
▁easier	-9.7701
▁counterparties	-9.77035
▁targeted	-9.77044
▁arise	-9.77067
▁Real	-9.7713
▁di	-9.77151
▁barriers	-9.77263
▁helps	-9.77271
▁marked	-9.77282
▁exposed	-9.77437
▁consequence	-9.77476
▁secure	-9.77541
▁supports	-9.77592
▁consideration	-9.77616
▁occur	-9.7762
▁MPC	-9.77678
▁notably	-9.77854
▁testing	-9.77888
N	-9.77904
▁board	-9.7796
.5	-9.78018
▁rural	-9.78019
▁prudent	-9.78167
ta	-9.78289
8	-9.78311
▁facility	-9.78359
▁p	-9.78469
▁conclusion	-9.78502
▁Services	-9.78559
▁contracts	-9.78572
▁se	-9.78593
▁studies	-9.78697
▁fast	-9.78803
▁Japanese	-9.78822
▁systemically	-9.78931
ist	-9.79021
▁Money	-9.79039
▁theory	-9.79049
li	-9.7914
▁steady	-9.79161
ization	-9.79329
▁generate	-9.79448
▁restrictions	-9.79493
▁rely	-9.79567
▁1999	-9.79746
▁1998	-9.79827
▁Most	-9.79855
▁pursue	-9.80023
▁23	-9.80106
▁evident	-9.80179
▁segments	-9.80181
▁2005	-9.80334
▁collapse	-9.80369
v	-9.80384
▁statistical	-9.80397
▁hence	-9.80416
▁bad	-9.80478
▁involves	-9.80559
▁equal	-9.8057
▁tasks	-9.80577
▁nation	-9.80632
▁moved	-9.80698
lo	-9.80732
▁influenced	-9.80813
▁playing	-9.80848
▁welfare	-9.81082
▁immediate	-9.8109
▁bubble	-9.81094
▁gaps	-9.81143
▁physical	-9.81193
▁expansionary	-9.81278
▁interests	-9.8128
▁unconventional	-9.81309
▁unchanged	-9.81381
▁sufficiently	-9.81405
ma	-9.81433
▁really	-9.81479
▁reasonable	-9.8152
▁described	-9.8154
▁nor	-9.81555
▁Consumer	-9.81588
▁mutual	-9.81615
▁try	-9.81834
ous	-9.81874
less	-9.81937
▁Community	-9.81981
▁ready	-9.82046
▁examples	-9.82116
▁exit	-9.82239
▁operation	-9.82298
▁hedge	-9.82308
ig	-9.82323
▁variety	-9.82385
▁vol	-9.82432
▁received	-9.82441
▁women	-9.82486
▁conventional	-9.82589
▁gold	-9.82633
▁impacts	-9.8284
▁2003	-9.82888
▁Y	-9.82946
▁neutral	-9.83038
▁interbank	-9.83111
▁ideas	-9.83144
▁Mechanism	-9.83169
10	-9.83286
for	-9.83394
▁schemes	-9.83423
▁adequacy	-9.83459
▁middle	-9.83515
▁globalization	-9.83519
▁scheme	-9.83526
▁components	-9.83528
▁High	-9.83536
▁widespread	-9.83552
▁collective	-9.83768
ised	-9.83794
▁Interest	-9.83918
▁confident	-9.83931
▁application	-9.8394
▁added	-9.83964
▁surveillance	-9.84011
▁fourth	-9.84161
▁morning	-9.84191
▁Both	-9.84214
▁multiple	-9.84218
▁grown	-9.84259
▁platform	-9.84329
▁Frankfurt	-9.84502
▁Open	-9.84505
▁London	-9.84522
▁lost	-9.84609
▁figure	-9.84716
▁Also	-9.84837
▁Good	-9.84878
▁combined	-9.84923
▁modest	-9.84956
▁learn	-9.84962
mo	-9.84973
▁helping	-9.84999
▁headline	-9.85172
.7	-9.85218
▁Switzerland	-9.85275
▁compensation	-9.85353
▁purchasing	-9.85509
▁professional	-9.85518
no	-9.8552
▁met	-9.85598
▁overnight	-9.85613
▁website	-9.85613
▁yen	-9.85742
▁fail	-9.85862
▁4.	-9.85863
ance	-9.85877
▁premium	-9.86005
▁portfolios	-9.8614
▁disruptions	-9.86384
▁expertise	-9.86398
ung	-9.86407
▁extensive	-9.86436
ce	-9.86564
▁represent	-9.86572
▁incomes	-9.86575
▁2001	-9.866
▁Thailand	-9.86766
▁regards	-9.86939
▁c	-9.87035
vi	-9.87053
▁space	-9.87132
▁driving	-9.87161
▁presence	-9.87161
▁del	-9.87176
▁Before	-9.87178
▁opening	-9.87207
▁anchored	-9.87224
▁OECD	-9.87255
▁track	-9.87267
out	-9.8732
▁thing	-9.87429
▁choice	-9.87436
▁reports	-9.87507
.8	-9.87589
▁slower	-9.87713
▁geopolitical	-9.87745
▁joint	-9.87757
▁mention	-9.87795
▁occurred	-9.878
▁proper	-9.87979
▁absence	-9.87984
.9	-9.88058
▁restore	-9.88156
▁participate	-9.8821
▁emphasis	-9.88217
▁2004	-9.88253
ating	-9.883
▁benchmark	-9.88307
▁60	-9.88356
▁Congress	-9.88383
▁fostering	-9.88448
▁eventually	-9.88483
be	-9.88485
we	-9.88612
▁grew	-9.88626
▁prolonged	-9.88879
▁easily	-9.88949
▁implies	-9.8911
looking	-9.89148
▁fragmentation	-9.89155
▁fairly	-9.8917
ling	-9.89189
▁learning	-9.89194
▁preserve	-9.89259
▁failures	-9.89282
performing	-9.89301
▁Overall	-9.89578
▁elevated	-9.89663
▁2008,	-9.89799
ry	-9.89823
▁sum	-9.89842
id	-9.8989
▁Crisis	-9.89896
▁USD	-9.90045
▁La	-9.90053
▁2024	-9.9011
▁cycles	-9.90122
led	-9.90216
▁literacy	-9.9044
▁stay	-9.90561
▁declines	-9.90566
▁incentive	-9.90626
▁empirical	-9.90648
ty	-9.90667
▁weakness	-9.90686
▁2008.	-9.90707
▁online	-9.90709
tor	-9.9076
▁old	-9.90792
▁establishing	-9.90802
▁deterioration	-9.90824
▁unit	-9.90889
▁ones	-9.90901
▁gain	-9.90983
▁permanent	-9.9117
▁threat	-9.91248
▁brings	-9.91256
▁determine	-9.91313
▁leads	-9.91367
▁subdued	-9.91401
▁Pact	-9.91493
▁Co	-9.91544
▁centre	-9.91571
▁diverse	-9.91741
im	-9.91751
month	-9.91843
▁2002	-9.91853
▁Greek	-9.91955
▁revenues	-9.91962
▁option	-9.92063
▁healthy	-9.9207
▁extend	-9.92088
▁everyone	-9.92104
▁showed	-9.92163
▁Economy	-9.92206
▁awareness	-9.92276
▁Not	-9.92321
▁bit	-9.92362
▁happen	-9.92382
▁sentiment	-9.924
▁Norges	-9.92427
▁inclusive	-9.92518
▁relation	-9.92525
tion	-9.92604
▁detail	-9.92618
▁Further	-9.92677
▁weeks	-9.92707
▁tight	-9.92755
▁Chinese	-9.92818
▁margin	-9.9309
▁represents	-9.93119
▁accompanied	-9.93129
▁formation	-9.93162
▁tests	-9.93164
▁practical	-9.93173
▁favorable	-9.93182
In	-9.93214
▁War	-9.93228
na	-9.93349
ul	-9.93376
▁proved	-9.93579
▁Because	-9.93633
si	-9.93682
▁SSM	-9.9371
▁bear	-9.93982
▁learned	-9.94011
▁feature	-9.94077
▁argue	-9.94112
▁link	-9.94142
▁turned	-9.94345
▁balances	-9.94378
▁majority	-9.94391
▁successfully	-9.94429
▁detailed	-9.94456
▁weaknesses	-9.94513
▁dealing	-9.94584
▁Kingdom	-9.94597
do	-9.94669
▁Last	-9.94708
▁etc	-9.94865
▁Hence	-9.9498
▁offset	-9.95084
▁reality	-9.95145
▁purposes	-9.95146
▁amounts	-9.95257
▁paid	-9.95335
9	-9.95361
▁powers	-9.95424
▁Price	-9.95435
▁bringing	-9.95438
6	-9.9559
▁poverty	-9.95599
▁agree	-9.95635
▁pleased	-9.95639
▁buy	-9.95695
▁den	-9.95758
▁huge	-9.95772
▁causes	-9.95796
▁diversity	-9.95802
▁Payments	-9.95926
▁contagion	-9.96032
▁branches	-9.96052
▁aspect	-9.96057
▁valuable	-9.96118
▁arising	-9.96178
▁Sources	-9.96208
▁drive	-9.96268
▁Securities	-9.96286
▁leaders	-9.96338
▁adjusted	-9.96341
▁los	-9.96402
▁enabling	-9.96408
▁methods	-9.96447
makers	-9.96593
▁importantly	-9.96619
▁Insurance	-9.96699
▁covered	-9.96837
▁engage	-9.96839
▁zu	-9.9687
▁recover	-9.96919
▁relationships	-9.96919
rs	-9.97042
▁feedback	-9.97049
▁ease	-9.97059
▁dialogue	-9.97194
▁demographic	-9.97235
▁delivered	-9.9726
ad	-9.97322
▁young	-9.97354
▁interventions	-9.97368
▁America	-9.97368
▁accommodation	-9.97399
▁optimal	-9.9748
▁pick	-9.9752
▁undertaken	-9.97546
▁shadow	-9.97649
▁otherwise	-9.97732
▁produce	-9.97786
▁reported	-9.97807
▁creditors	-9.97878
▁27	-9.97894
▁advances	-9.979
▁St	-9.97946
▁drop	-9.97954
▁extreme	-9.98038
▁proportion	-9.98092
▁book	-9.98093
ting	-9.98135
▁Le	-9.98191
▁2009.	-9.98315
▁goes	-9.98342
▁m	-9.98366
▁variables	-9.98517
ate	-9.98547
▁anticipated	-9.98687
▁Here	-9.98703
▁worldwide	-9.98715
▁speeches	-9.98727
▁slack	-9.98815
▁ask	-9.9898
▁usually	-9.99124
▁integrity	-9.99143
▁senior	-9.99143
▁shifts	-9.9921
▁parties	-9.99218
▁Norwegian	-9.99247
▁package	-9.99265
▁SEPA	-9.99345
▁subsequent	-9.99375
▁programmes	-9.99479
▁panel	-9.99628
▁laws	-9.99638
▁ASEAN	-9.99639
▁release	-9.99776
um	-9.99864
▁26	-9.99879
▁composition	-9.99891
▁regimes	-9.99936
▁guide	-9.9997
▁Outlook	-10.0001
▁Minister	-10.0005
▁roughly	-10.002
▁leave	-10.0024
▁academic	-10.0029
▁perceived	-10.0033
▁material	-10.0037
▁damage	-10.0049
▁carry	-10.0058
▁Series	-10.0062
▁status	-10.0067
com	-10.007
▁exist	-10.007
▁gives	-10.0079
▁expressed	-10.0085
▁Address	-10.0086
▁coordinated	-10.0091
▁characteristics	-10.0092
▁moral	-10.0098
ising	-10.0101
▁delivery	-10.0103
▁margins	-10.0111
▁AI	-10.0112
ol	-10.0125
▁vision	-10.0126
V	-10.0127
▁Remarks	-10.0128
▁cuts	-10.0131
see	-10.0131
▁receive	-10.0134
▁insights	-10.0134
▁extraordinary	-10.0137
▁projection	-10.0142
▁contraction	-10.0142
▁calls	-10.0143
▁reaction	-10.0144
▁revenue	-10.0149
▁continuous	-10.0164
▁Structural	-10.0166
▁powerful	-10.0172
▁giving	-10.0173
▁host	-10.0181
▁obvious	-10.0195
▁overcome	-10.0195
▁heavily	-10.0198
▁advance	-10.0209
▁historically	-10.0216
▁gas	-10.0217
▁upside	-10.022
▁contain	-10.022
▁im	-10.0221
▁indicated	-10.0223
▁absorb	-10.0225
▁corporations	-10.0249
▁offered	-10.0256
▁crypto	-10.0258
▁agreements	-10.0263
▁MAS	-10.0268
▁push	-10.0272
▁Statistics	-10.0288
▁slowing	-10.029
▁diversification	-10.0294
▁offers	-10.0295
▁Do	-10.03
▁emerged	-10.03
▁31	-10.0303
▁slowed	-10.0305
▁orderly	-10.031
am	-10.0323
ex	-10.0335
risk	-10.0335
▁respective	-10.0337
▁Why	-10.034
ner	-10.034
▁media	-10.0342
▁story	-10.0344
▁multi	-10.0344
oriented	-10.0352
▁Spanish	-10.0356
▁surveys	-10.037
ism	-10.0375
▁careful	-10.0375
▁plays	-10.0401
▁measurement	-10.0403
▁specifically	-10.0414
▁obligations	-10.0425
▁Trade	-10.043
he	-10.043
▁users	-10.0437
▁structured	-10.044
one	-10.0441
▁lend	-10.0443
▁chart	-10.0446
▁argued	-10.0461
▁Similarly	-10.048
▁cards	-10.0482
▁emergence	-10.0485
▁infrastructures	-10.049
▁FSB	-10.0518
▁r	-10.0531
▁treatment	-10.0542
▁Climate	-10.0543
▁involve	-10.0544
▁meant	-10.0552
scale	-10.0556
▁chain	-10.0557
▁Future	-10.0565
▁interesting	-10.0568
level	-10.0568
▁Office	-10.0577
▁roles	-10.0578
ies	-10.0588
▁indicates	-10.0591
day	-10.0592
▁relating	-10.0593
per	-10.0608
▁t	-10.061
▁couple	-10.0615
▁shape	-10.0615
▁kept	-10.0615
▁deeper	-10.062
▁28	-10.0623
▁thanks	-10.0626
vis	-10.0627
▁conducting	-10.063
▁RMB	-10.063
▁reliable	-10.0631
▁reaching	-10.0632
▁leadership	-10.0641
▁Against	-10.0644
▁encouraged	-10.0659
ized	-10.0666
org	-10.0671
▁items	-10.0672
▁join	-10.0675
▁placed	-10.0678
▁Irish	-10.0682
▁bodies	-10.0689
▁solvency	-10.0698
▁bubbles	-10.0702
▁taxes	-10.0704
▁care	-10.0708
▁recorded	-10.0715
ts	-10.0719
▁advantages	-10.0725
▁ownership	-10.0728
▁opinion	-10.073
é	-10.0735
▁Payment	-10.0737
▁interaction	-10.0744
▁foundation	-10.0774
▁environmental	-10.0777
▁ecosystem	-10.0779
▁Meeting	-10.0783
▁recognition	-10.0783
con	-10.0805
▁heightened	-10.0811
▁shares	-10.0817
2%	-10.0818
▁feel	-10.0823
▁Italian	-10.0825
▁Vice	-10.0842
▁3%	-10.0843
▁phenomenon	-10.0845
▁80	-10.0845
▁insufficient	-10.0845
▁lowering	-10.0849
▁Department	-10.0854
ia	-10.086
▁City	-10.0867
▁shareholders	-10.0867
market	-10.0867
▁Russia	-10.0869
▁surge	-10.0872
▁respectively	-10.0888
▁offering	-10.0898
▁former	-10.0899
ations	-10.0923
ck	-10.0924
▁stabilize	-10.0929
▁experiencing	-10.0933
▁Brexit	-10.0936
▁Data	-10.0937
▁theme	-10.094
▁coins	-10.0952
▁dollars	-10.0952
ated	-10.0953
▁laundering	-10.0956
▁discount	-10.0964
▁list	-10.0972
▁safeguard	-10.0976
▁reliance	-10.0976
▁movement	-10.0983
ian	-10.0987
▁decrease	-10.1002
▁participating	-10.1014
▁hazard	-10.1016
▁franc	-10.1018
▁2010.	-10.1025
▁live	-10.1026
▁failed	-10.1031
▁concerning	-10.1033
▁architecture	-10.1033
▁daily	-10.1043
▁evolve	-10.1056
▁Sector	-10.106
▁demonstrated	-10.1063
▁borders	-10.1067
▁probability	-10.1076
▁road	-10.1076
ors	-10.1086
▁prove	-10.1092
▁suggested	-10.1099
standard	-10.1104
▁supervisor	-10.1109
▁John	-10.1113
▁informed	-10.112
▁properly	-10.1122
▁insurers	-10.1128
▁affects	-10.113
▁unlikely	-10.113
▁imply	-10.113
▁entry	-10.1138
▁analyses	-10.1157
▁running	-10.1158
▁faces	-10.1159
ities	-10.1171
▁perform	-10.1173
▁stimulate	-10.1174
▁borrower	-10.1181
▁pillar	-10.1181
▁facilitating	-10.1191
▁Philippines	-10.1197
▁borrow	-10.1206
▁era	-10.1208
▁favour	-10.1216
▁workforce	-10.1232
▁General	-10.1236
▁inequality	-10.1238
▁ample	-10.1246
▁Current	-10.1248
▁notes	-10.1251
▁resort	-10.1256
izing	-10.1256
▁budgetary	-10.126
ted	-10.1261
▁emerge	-10.1265
▁wrong	-10.1276
▁cautious	-10.1279
▁Regulatory	-10.1289
▁Resolution	-10.1293
▁accept	-10.1298
▁carried	-10.1303
▁Index	-10.1307
▁commodities	-10.131
▁released	-10.1311
▁sustain	-10.1312
▁lowest	-10.1313
▁align	-10.1323
ence	-10.1327
ize	-10.1335
▁indicator	-10.1343
*	-10.1346
▁finally	-10.1351
▁makers	-10.1359
▁Foreign	-10.136
▁comments	-10.1366
▁2009,	-10.1374
hand	-10.1381
▁2014.	-10.1384
▁premia	-10.1389
▁explicit	-10.1393
▁es	-10.1397
▁comparison	-10.1399
▁input	-10.1411
▁explained	-10.1413
▁pattern	-10.1416
▁news	-10.1422
▁swap	-10.143
▁Mauritius	-10.1431
▁beneficial	-10.1431
▁choices	-10.1433
▁mix	-10.1434
▁putting	-10.144
▁preventing	-10.145
▁equivalent	-10.1457
▁krone	-10.1462
▁Lehman	-10.1465
ke	-10.1469
▁5.	-10.1475
▁secondary	-10.1478
▁membership	-10.1484
▁dependent	-10.1484
▁occasion	-10.1488
▁2013.	-10.1505
▁complement	-10.1512
▁seeing	-10.1515
▁calculations	-10.1526
economic	-10.1533
▁costly	-10.1539
ang	-10.1557
sized	-10.1563
▁mostly	-10.1563
▁students	-10.1564
▁magnitude	-10.1567
▁situations	-10.1575
▁weight	-10.1578
ut	-10.1579
▁understood	-10.1601
▁posed	-10.1606
▁transfers	-10.1608
go	-10.1614
▁vulnerability	-10.1616
▁expectation	-10.1621
▁Liquidity	-10.1633
▁assumptions	-10.1636
▁ratings	-10.164
nd	-10.1641
▁greatly	-10.1643
▁90	-10.1654
▁asked	-10.1655
▁Be	-10.1663
ally	-10.1664
▁Phillips	-10.1666
▁Law	-10.1667
▁2007.	-10.1671
▁break	-10.168
▁efficiently	-10.1684
▁assume	-10.1694
▁attractive	-10.1694
▁introduce	-10.1696
▁retirement	-10.17
▁achievement	-10.1709
lu	-10.1723
▁dual	-10.1729
▁generation	-10.1735
▁le	-10.1736
▁touch	-10.1746
▁steadily	-10.1755
▁equally	-10.1758
▁works	-10.1765
▁counterparty	-10.1774
▁elsewhere	-10.178
▁immediately	-10.179
J	-10.1796
▁turbulence	-10.1799
▁Prices	-10.1803
so	-10.1813
▁monthly	-10.1813
▁mark	-10.1815
▁argument	-10.1816
▁initially	-10.1818
▁Institutions	-10.1827
▁firmly	-10.1831
▁regulator	-10.1833
gen	-10.1835
▁concentration	-10.1838
▁capita	-10.1841
▁possibly	-10.1845
▁essentially	-10.1847
▁depositors	-10.1852
▁2012.	-10.1852
▁experts	-10.1864
Q	-10.1867
▁fintech	-10.187
backed	-10.1871
sh	-10.1888
▁truly	-10.1892
▁agriculture	-10.1896
▁involving	-10.1896
▁HICP	-10.1898
▁analytical	-10.1901
▁details	-10.1901
▁precisely	-10.1907
▁prepare	-10.1911
▁react	-10.1911
▁spillovers	-10.1912
▁legislative	-10.1914
▁Korea	-10.1916
▁decide	-10.1922
ft	-10.1923
ak	-10.1929
▁principal	-10.193
▁Deposit	-10.1933
0%	-10.1934
▁Meanwhile	-10.1936
▁literature	-10.194
▁avoiding	-10.194
▁agency	-10.1954
▁microfinance	-10.1958
▁Corporate	-10.1965
x	-10.1978
▁assumption	-10.1979
▁liability	-10.1985
▁Vol	-10.1994
▁2015.	-10.1999
▁accepted	-10.1999
▁getting	-10.2003
▁2011.	-10.2005
▁Low	-10.2006
▁stressed	-10.201
▁stands	-10.2015
▁showing	-10.2015
▁signals	-10.2019
▁trying	-10.2021
European	-10.2027
ability	-10.2029
▁1995	-10.2032
▁demands	-10.2033
by	-10.2035
▁comment	-10.2041
through	-10.2045
▁Code	-10.2052
▁approximately	-10.2059
▁timing	-10.2064
▁volumes	-10.2067
▁dimension	-10.207
▁assumed	-10.2072
▁remarkable	-10.2072
▁Effective	-10.208
▁premiums	-10.2087
▁organization	-10.2089
di	-10.2091
▁indirect	-10.2091
▁seven	-10.2091
▁ourselves	-10.2094
▁Main	-10.2106
▁agricultural	-10.2108
▁Framework	-10.2121
▁rises	-10.2123
▁appropriately	-10.2126
all	-10.2139
Y	-10.214
▁Asset	-10.2141
▁Indonesia	-10.2141
▁chains	-10.2142
▁Ukraine	-10.2149
▁baseline	-10.2154
▁spring	-10.2169
▁examine	-10.2169
em	-10.217
▁Long	-10.2179
ha	-10.2198
6%	-10.2199
over	-10.2209
▁securitisation	-10.221
▁separate	-10.2222
▁gained	-10.2229
▁2016.	-10.223
▁hours	-10.2235
pe	-10.2236
▁economics	-10.2241
value	-10.2248
▁triggered	-10.2252
▁aiming	-10.2253
▁residential	-10.2255
▁1996	-10.2263
▁rights	-10.2264
▁parallel	-10.2277
▁massive	-10.2278
▁2007,	-10.2285
▁Non	-10.2289
▁segment	-10.2292
▁accelerated	-10.2302
▁Two	-10.2308
▁accelerate	-10.2316
▁ultimate	-10.2316
ni	-10.2318
▁remember	-10.2319
▁Ministry	-10.2327
▁adopting	-10.233
▁tourism	-10.233
▁produced	-10.2332
▁double	-10.2332
▁correct	-10.2336
▁heart	-10.2342
▁Banco	-10.2342
▁CBDC	-10.2347
▁desirable	-10.2353
▁neither	-10.2353
▁priorities	-10.2358
▁surrounding	-10.2359
▁window	-10.2361
pdf	-10.238
▁thoughts	-10.2385
▁decreased	-10.2388
▁creates	-10.2419
▁identifying	-10.2422
4%	-10.2429
▁accumulation	-10.2433
▁threats	-10.2437
▁contained	-10.244
▁lies	-10.2444
▁Or	-10.2455
▁exceptional	-10.246
▁topics	-10.247
▁Bo	-10.2478
▁links	-10.2479
▁decisive	-10.2481
▁evaluate	-10.2484
▁passed	-10.2495
▁engagement	-10.2502
▁seeking	-10.2504
▁existence	-10.2506
▁relates	-10.2506
▁generated	-10.2516
▁entirely	-10.2516
▁completed	-10.2527
▁prevailing	-10.2529
▁emergency	-10.2541
▁Ma	-10.2542
▁episodes	-10.2543
▁Bureau	-10.2545
▁Those	-10.2549
▁variable	-10.2549
▁ha	-10.2551
▁openness	-10.2554
▁comparable	-10.2557
▁Program	-10.2568
▁applies	-10.2569
▁Discussion	-10.2573
▁carbon	-10.2575
op	-10.2575
▁Deutsche	-10.2578
▁Press	-10.2585
▁obtain	-10.2592
▁reduces	-10.2595
▁explore	-10.2601
▁drawn	-10.2601
ton	-10.2601
▁refer	-10.2605
sector	-10.2606
▁happened	-10.2608
▁unsustainable	-10.2619
▁apparent	-10.262
▁1997	-10.2622
▁subprime	-10.2647
▁utilisation	-10.2651
ie	-10.2651
▁Un	-10.2652
▁signal	-10.2658
▁granted	-10.2662
▁follows	-10.2662
▁tell	-10.2665
▁organised	-10.2671
▁enforcement	-10.2674
▁Chile	-10.2681
▁Bernanke	-10.2683
▁6.	-10.2686
▁begun	-10.2698
▁lesson	-10.2702
tic	-10.2707
▁Instead	-10.2709
om	-10.2712
30	-10.2713
▁capabilities	-10.2713
ho	-10.2713
▁QE	-10.2717
▁evaluation	-10.2722
▁Year	-10.2722
▁Challenges	-10.2724
▁reverse	-10.2726
▁forecasting	-10.2727
▁weather	-10.273
▁check	-10.2731
PDF	-10.2732
▁significance	-10.2733
▁Plan	-10.2736
▁notable	-10.2741
▁floating	-10.2746
7%	-10.2757
▁narrow	-10.2759
▁duration	-10.2765
ine	-10.2766
▁Consequently	-10.2769
▁talent	-10.2773
▁FinTech	-10.2775
specific	-10.2781
▁29	-10.2783
▁Note	-10.2786
▁recognize	-10.2789
▁accession	-10.2794
▁eligible	-10.2796
▁weakening	-10.2802
▁En	-10.2809
▁tighter	-10.281
▁statutory	-10.2812
▁person	-10.2822
▁unexpected	-10.2823
GDP	-10.2825
▁body	-10.2832
▁lives	-10.2833
▁sensitive	-10.284
▁exactly	-10.2843
▁stated	-10.2844
▁consistently	-10.2844
▁clients	-10.2853
▁enter	-10.2861
▁lowered	-10.2861
pro	-10.2875
▁involvement	-10.2882
gov	-10.2882
▁went	-10.2883
▁investing	-10.2885
▁albeit	-10.2887
▁issuing	-10.2887
▁branch	-10.2889
▁coverage	-10.2902
▁sign	-10.2902
▁forced	-10.2906
▁Al	-10.2908
▁(19	-10.2914
▁saying	-10.2918
au	-10.2919
▁2020.	-10.2928
▁differ	-10.294
▁Ben	-10.2941
▁numbers	-10.2947
uk	-10.2948
▁patterns	-10.295
▁bail	-10.2956
▁Statement	-10.2973
▁von	-10.2979
▁perspectives	-10.2983
▁risky	-10.2986
▁profile	-10.299
▁persist	-10.2991
▁stabilisation	-10.2993
▁message	-10.3011
▁foundations	-10.3012
▁ambitious	-10.3018
▁emphasizing	-10.3018
▁Among	-10.3018
ard	-10.3018
▁platforms	-10.302
▁processing	-10.3026
▁her	-10.3027
▁choose	-10.303
▁completely	-10.3043
ac	-10.3044
▁constant	-10.3052
▁CCPs	-10.3054
25	-10.3055
quality	-10.306
▁school	-10.3069
5%	-10.3072
▁issuers	-10.3077
▁Key	-10.3081
▁lender	-10.3088
vers	-10.3095
▁Portugal	-10.3095
▁RBA	-10.3096
▁directors	-10.3097
▁anticipate	-10.3101
▁sets	-10.3103
▁stop	-10.3104
▁owing	-10.3108
▁served	-10.3113
▁responded	-10.3115
▁backdrop	-10.3124
Re	-10.3128
▁70	-10.3129
▁Finland	-10.3136
▁mandates	-10.3141
ier	-10.3146
▁Mar	-10.3149
▁Mo	-10.3149
▁7.	-10.3159
▁continuously	-10.3162
50	-10.3169
▁preparing	-10.3169
▁sell	-10.3175
▁su	-10.3182
▁Republic	-10.3182
▁concrete	-10.3186
▁eight	-10.3187
ca	-10.3191
▁correction	-10.3207
ver	-10.3214
▁appreciate	-10.322
▁poses	-10.3221
▁families	-10.3227
▁evolved	-10.3236
▁2010,	-10.3247
▁maturities	-10.3248
12	-10.3254
▁difficulty	-10.3256
▁drivers	-10.3261
▁stood	-10.3277
▁sophisticated	-10.3281
▁Private	-10.3289
▁slowly	-10.3289
▁Paris	-10.3291
▁Programme	-10.3295
▁Based	-10.3297
▁2014,	-10.3299
way	-10.3305
▁Latin	-10.3306
▁anti	-10.3314
▁excluding	-10.3325
▁Accordingly	-10.3326
▁engaged	-10.3341
▁Following	-10.3344
▁mis	-10.3356
▁multilateral	-10.3365
▁likelihood	-10.3365
▁resolve	-10.3376
▁deepening	-10.3388
▁lasting	-10.3389
▁extension	-10.3391
wa	-10.3404
▁prominent	-10.3405
8%	-10.3407
▁lose	-10.3408
FI	-10.341
▁pursuing	-10.342
▁relevance	-10.342
ru	-10.3423
▁statements	-10.3423
▁guarantees	-10.3432
11	-10.3449
▁claims	-10.3452
▁advice	-10.3454
▁techniques	-10.3455
▁collection	-10.3456
▁acting	-10.3465
▁contributes	-10.3484
▁consultation	-10.3491
free	-10.3496
▁land	-10.3503
▁lie	-10.351
▁1.5	-10.3511
▁ver	-10.3511
▁felt	-10.3518
▁express	-10.3525
▁representatives	-10.3525
▁connection	-10.3525
▁brief	-10.3525
▁mission	-10.3541
▁attract	-10.3548
▁undermine	-10.355
▁findings	-10.356
▁French	-10.3561
▁discussing	-10.3561
▁workshop	-10.3565
?"	-10.3571
▁Jean	-10.3587
▁tendency	-10.3604
▁www	-10.3608
▁reinforce	-10.3617
▁inherent	-10.3619
tra	-10.3627
▁2017.	-10.3631
▁Mexico	-10.3643
▁Director	-10.3648
▁underway	-10.3652
▁Digital	-10.3659
▁commitments	-10.3663
Monetary	-10.3664
▁causing	-10.3669
po	-10.3675
▁Zambia	-10.3677
▁committee	-10.3681
ning	-10.3681
▁Having	-10.3686
▁referred	-10.3691
▁ageing	-10.3691
▁concentrated	-10.3698
vo	-10.3703
▁highlighting	-10.3711
▁enabled	-10.3712
▁presentation	-10.3718
▁pursued	-10.3729
▁pronounced	-10.3734
-20	-10.3743
▁prime	-10.3743
▁Developments	-10.3743
▁k	-10.3746
▁forum	-10.3746
▁Innovation	-10.3751
▁vast	-10.3751
▁linkages	-10.3752
▁EMEs	-10.3754
▁focuses	-10.3755
▁Centre	-10.376
▁Nonetheless	-10.376
▁clarity	-10.3769
▁achievements	-10.3771
1%	-10.3772
▁Information	-10.3772
▁Fiji	-10.3777
▁2019.	-10.3777
▁numerous	-10.3778
▁distinguished	-10.378
▁announcement	-10.3781
▁inviting	-10.3782
▁ground	-10.3783
▁willing	-10.3784
▁2013,	-10.3785
▁name	-10.3794
▁sudden	-10.3811
▁meaningful	-10.3811
▁recognise	-10.3812
▁Their	-10.3816
▁deleveraging	-10.3818
▁finding	-10.3819
ill	-10.3823
▁necessitating	-10.3826
▁wake	-10.3826
▁confirmed	-10.3833
▁predict	-10.3835
operation	-10.3839
▁auf	-10.384
▁mobility	-10.3844
▁consolidated	-10.3847
mp	-10.385
▁Z	-10.3851
▁recognised	-10.3852
ECB	-10.3852
▁spirit	-10.3853
▁2022.	-10.3854
▁revealed	-10.3865
▁ge	-10.3869
▁Rather	-10.387
▁Maastricht	-10.3881
▁depending	-10.3882
▁countercyclical	-10.3895
area	-10.3896
▁indebtedness	-10.3904
▁2012,	-10.3906
▁communications	-10.3916
▁Con	-10.3916
▁restrictive	-10.3919
▁virtually	-10.3922
son	-10.3926
▁disruption	-10.3935
▁determining	-10.3937
▁witnessed	-10.3949
▁Die	-10.3951
▁adjusting	-10.3951
ish	-10.3956
▁2018.	-10.3956
▁spend	-10.3957
▁pointed	-10.3963
▁arbitrage	-10.3968
▁renewed	-10.397
▁conflict	-10.3973
pandemic	-10.3975
▁2006.	-10.3981
▁invitation	-10.3986
▁introducing	-10.3987
ions	-10.3999
▁Distinguished	-10.4004
nt	-10.4005
den	-10.4006
▁amid	-10.4007
▁shifted	-10.4007
▁Emerging	-10.4011
▁(1)	-10.4015
▁depth	-10.4027
▁banker	-10.4038
▁1,	-10.4042
▁persistence	-10.4045
driven	-10.4047
▁audit	-10.4054
▁Domestic	-10.4065
19	-10.4066
▁v	-10.4074
▁gone	-10.4076
▁contrary	-10.4076
▁2020,	-10.4078
▁willingness	-10.4082
▁nothing	-10.4085
▁inform	-10.4086
▁inadequate	-10.4089
▁Kenya	-10.4089
▁marginal	-10.4092
ot	-10.4093
▁raises	-10.4097
▁mitigating	-10.4099
▁stemming	-10.4103
▁helpful	-10.4108
▁o	-10.4112
▁obviously	-10.4113
ial	-10.4115
);	-10.4118
▁fundamentally	-10.4118
▁Risks	-10.412
▁happy	-10.4121
15	-10.4123
management	-10.4124
▁lay	-10.4126
▁save	-10.414
ative	-10.414
▁valuation	-10.4147
▁expenditures	-10.4152
▁assessed	-10.4152
▁autumn	-10.4153
▁adequately	-10.4155
▁characterised	-10.4155
▁Me	-10.4156
▁desired	-10.4158
▁weakened	-10.417
▁determination	-10.4171
▁game	-10.4172
▁portion	-10.4173
▁Affairs	-10.4181
▁Fourth	-10.4181
▁partner	-10.4183
▁fees	-10.4186
▁Notes	-10.4197
▁n	-10.42
▁8.	-10.42
▁2015,	-10.4205
▁contract	-10.4206
▁capture	-10.4207
▁ESRB	-10.4212
▁whereas	-10.4226
▁preserving	-10.4231
▁Serbia	-10.424
ii	-10.4268
▁disclosures	-10.4269
▁las	-10.428
▁office	-10.4281
▁cope	-10.4282
▁Lo	-10.4285
▁viable	-10.4286
Financial	-10.429
ful	-10.4298
▁consistency	-10.4301
▁perception	-10.4302
▁bottom	-10.4303
▁quarterly	-10.4309
▁slide	-10.4309
▁predictable	-10.4315
▁Jan	-10.4316
▁recall	-10.432
▁team	-10.4321
▁regularly	-10.4323
▁temporarily	-10.4328
▁liberalisation	-10.4333
▁round	-10.4339
▁Bulletin	-10.4342
▁5%	-10.4344
▁outflows	-10.4346
▁approved	-10.4347
▁Just	-10.4351
sharing	-10.4356
▁Street	-10.4356
▁tends	-10.437
▁2023.	-10.4373
▁laid	-10.4391
▁search	-10.4392
▁enormous	-10.4396
▁episode	-10.4396
▁distress	-10.4396
▁employed	-10.44
▁revolution	-10.4402
our	-10.4404
▁chosen	-10.4404
▁10%	-10.4412
▁conclusions	-10.4417
▁worse	-10.442
▁persistently	-10.442
▁attempt	-10.4425
▁equipment	-10.4431
land	-10.4433
▁reductions	-10.4435
▁School	-10.444
euro	-10.4448
▁deviations	-10.445
▁Once	-10.445
▁explanation	-10.4453
▁maintenance	-10.4454
▁Housing	-10.4458
▁constrained	-10.4459
▁serves	-10.4462
▁Ro	-10.4464
▁Iceland	-10.4467
fi	-10.4475
▁Without	-10.4476
▁categories	-10.4477
▁Taylor	-10.448
▁appetite	-10.4482
▁deregulation	-10.4484
▁ESCB	-10.4485
▁journey	-10.4491
▁David	-10.4491
▁alongside	-10.4494
▁pursuit	-10.4496
▁entity	-10.4501
▁observers	-10.4506
▁initiated	-10.4512
▁w	-10.4513
▁Corporation	-10.4515
▁networks	-10.452
▁fresh	-10.4524
▁leveraged	-10.4528
▁normally	-10.4532
▁0.5	-10.4535
▁pillars	-10.4538
pa	-10.4542
▁AML	-10.4543
▁illustrate	-10.4546
▁tackle	-10.4546
da	-10.455
▁conducive	-10.4553
▁planned	-10.4553
CB	-10.4562
▁insolvency	-10.4567
▁Lending	-10.4567
▁1%	-10.4569
▁dramatic	-10.4571
▁Uganda	-10.4572
▁stabilise	-10.4574
▁2011,	-10.4577
▁applications	-10.459
MA	-10.4592
▁moderately	-10.4621
▁judgment	-10.4631
▁LIBOR	-10.4639
▁trigger	-10.4646
▁Directive	-10.4668
▁Netherlands	-10.4672
▁seriously	-10.4677
▁nations	-10.4678
▁prospect	-10.4682
▁relations	-10.4684
mi	-10.469
▁fine	-10.4704
▁Large	-10.4706
▁optimistic	-10.4706
▁family	-10.4725
▁savers	-10.4726
▁vary	-10.4729
▁gave	-10.474
sch	-10.4743
▁TARGET	-10.4746
▁imperative	-10.4749
▁Ho	-10.4755
fa	-10.4762
▁Pakistan	-10.4764
.[	-10.4765
▁Mark	-10.4776
▁aftermath	-10.4788
▁worst	-10.4788
▁legacy	-10.4793
gu	-10.4796
weighted	-10.4803
▁1994	-10.4803
▁Three	-10.4811
▁2021.	-10.4816
ado	-10.4821
100	-10.4822
▁QQE	-10.4822
▁stages	-10.4825
▁2016,	-10.4831
▁turning	-10.4835
▁convinced	-10.4838
▁fulfil	-10.4842
▁frequently	-10.4851
▁emphasise	-10.4862
▁suggesting	-10.4868
▁facilitated	-10.4872
▁entail	-10.4873
▁diversified	-10.4879
▁dimensions	-10.4882
tre	-10.4883
▁surpluses	-10.4888
▁par	-10.4889
▁zone	-10.4889
▁moderation	-10.489
▁digitalisation	-10.4892
SE	-10.4893
▁usual	-10.4896
aci	-10.4898
▁Through	-10.4908
▁fear	-10.4908
▁Accord	-10.4909
▁reinforced	-10.4913
▁accounted	-10.4922
ba	-10.4922
▁undertake	-10.4923
▁EUR	-10.4923
ah	-10.4927
money	-10.4933
▁water	-10.4935
▁Chair	-10.4936
que	-10.4942
▁Area	-10.4949
▁entered	-10.4953
▁pool	-10.4959
▁eased	-10.4961
▁negotiations	-10.4961
▁ensures	-10.4966
▁Denmark	-10.4969
▁g	-10.4969
▁limitations	-10.4971
▁communicate	-10.4987
▁Israel	-10.4988
▁2.5	-10.4994
▁st	-10.5004
▁falls	-10.5004
▁career	-10.5006
▁indicating	-10.5014
▁Per	-10.502
line	-10.5026
▁complicated	-10.5027
▁profitable	-10.5031
▁enjoy	-10.5032
▁Draghi	-10.5038
▁class	-10.5046
ng	-10.5047
▁migration	-10.5048
▁driver	-10.5049
ct	-10.5066
9%	-10.5071
hi	-10.5073
▁Currency	-10.5086
ec	-10.5087
▁strict	-10.5096
her	-10.5102
ven	-10.5104
▁Core	-10.511
▁constantly	-10.5112
▁(2)	-10.5112
▁Papers	-10.5114
▁man	-10.5149
▁North	-10.516
21	-10.516
▁lag	-10.5163
▁recovered	-10.5163
▁normalization	-10.5166
60	-10.5174
▁Small	-10.5183
▁bias	-10.5186
▁DC	-10.5187
▁median	-10.5188
▁speaking	-10.5196
▁describe	-10.52
▁publication	-10.5207
▁original	-10.5212
ell	-10.5214
bo	-10.5222
▁observations	-10.5223
Graph	-10.5229
▁limiting	-10.5232
▁shifting	-10.5233
▁2005.	-10.5239
▁bilateral	-10.524
▁Settlements	-10.5244
▁honour	-10.5249
▁Employment	-10.525
ka	-10.5252
▁visible	-10.5265
tain	-10.5265
▁uses	-10.5266
▁2022,	-10.5267
▁arguments	-10.527
▁concluded	-10.5273
▁spiral	-10.5275
▁Facility	-10.5275
ag	-10.5276
▁Technology	-10.528
▁necessity	-10.528
▁Sch	-10.5284
▁homes	-10.5288
▁disposable	-10.5291
▁securitization	-10.5296
▁partnership	-10.5304
▁Banque	-10.5306
cent	-10.5308
▁runs	-10.5309
▁fewer	-10.5313
▁Ba	-10.5314
qui	-10.5316
▁SME	-10.5318
▁attributed	-10.5322
▁revision	-10.5325
▁anniversary	-10.5331
▁language	-10.5331
▁minutes	-10.5333
▁reputation	-10.5335
min	-10.5339
14	-10.534
▁crude	-10.5342
▁distinct	-10.5346
▁rebound	-10.5347
▁intermediate	-10.5348
▁safeguarding	-10.5351
▁territory	-10.5352
▁utilization	-10.5352
▁San	-10.5352
▁viewed	-10.5354
▁rebalancing	-10.5357
ER	-10.5362
▁hike	-10.5371
▁Turkey	-10.5378
2.	-10.5388
(	-10.5388
▁charge	-10.5389
▁emphasize	-10.5397
▁intend	-10.5398
▁aid	-10.5399
ure	-10.5408
▁distributed	-10.5416
▁traded	-10.5419
▁solely	-10.5422
▁disinflation	-10.5424
▁200	-10.5425
ger	-10.5426
▁Several	-10.5429
▁corresponding	-10.5431
nn	-10.5435
▁theoretical	-10.5443
▁Professor	-10.5445
▁audience	-10.5445
▁analysts	-10.5447
▁Ms	-10.545
▁intensified	-10.5455
▁proven	-10.5459
▁cumulative	-10.546
setting	-10.5461
▁organisations	-10.5465
▁approval	-10.5465
▁averaged	-10.5468
▁draft	-10.547
▁imposed	-10.5471
lt	-10.5472
40	-10.5482
▁exception	-10.5483
▁Strategy	-10.5486
▁define	-10.5495
▁markedly	-10.5501
▁withstand	-10.5501
▁tightened	-10.5502
▁quantity	-10.5502
▁retain	-10.5509
ap	-10.5516
▁automatic	-10.5517
16	-10.5517
▁Shariah	-10.5518
gi	-10.5518
▁word	-10.5519
▁fraud	-10.5524
▁represented	-10.5524
▁extending	-10.5532
▁orientation	-10.5533
tro	-10.5536
▁unable	-10.5538
▁greatest	-10.5538
▁Debt	-10.5542
▁content	-10.5546
▁anything	-10.5549
▁looks	-10.5558
▁impressive	-10.5559
See	-10.5561
▁emissions	-10.5568
ear	-10.5569
▁delay	-10.5577
▁threshold	-10.5581
▁remittances	-10.5583
EU	-10.559
▁sovereignty	-10.5599
▁organisation	-10.5603
▁shortages	-10.5604
ual	-10.5606
▁hear	-10.5606
▁una	-10.5609
▁Da	-10.561
▁Opening	-10.5618
▁accumulated	-10.562
▁selling	-10.5622
▁Then	-10.5624
▁Turning	-10.5628
000	-10.5634
▁underwriting	-10.5644
▁nonbank	-10.5645
▁conflicts	-10.5645
▁highlights	-10.5649
▁Summit	-10.5649
▁petroleum	-10.5649
▁assist	-10.565
▁observation	-10.5666
▁naturally	-10.5667
▁holds	-10.5667
▁interactions	-10.5672
▁fit	-10.5679
▁]	-10.5681
▁else	-10.5682
▁Bankers	-10.5684
tech	-10.5697
if	-10.5716
▁car	-10.5721
▁Na	-10.5721
▁certainty	-10.5721
▁Agreement	-10.5723
▁Ver	-10.5735
▁incoming	-10.5739
▁vis	-10.574
▁complementary	-10.5745
▁extra	-10.5755
▁supervised	-10.5759
▁responding	-10.576
▁exceed	-10.5763
▁2017,	-10.5763
▁biggest	-10.5766
▁compete	-10.5766
▁intention	-10.5787
▁remind	-10.5789
▁claim	-10.5793
ring	-10.5794
▁interpretation	-10.5798
▁incorporate	-10.5801
▁acceleration	-10.5803
▁rational	-10.5808
▁internet	-10.5815
Figure	-10.5817
▁recovering	-10.5822
banks	-10.5838
▁financed	-10.5839
▁quick	-10.5842
▁caution	-10.5844
▁Labor	-10.5846
▁People	-10.5857
▁eliminate	-10.5861
cyclical	-10.5863
der	-10.5868
▁ERM	-10.5869
▁behalf	-10.5872
▁owners	-10.5878
▁discretion	-10.5884
▁instant	-10.5885
▁reasonably	-10.5886
▁durable	-10.5894
nu	-10.5896
▁vehicles	-10.5898
res	-10.59
▁speculative	-10.5901
▁Any	-10.5906
▁Supervisors	-10.5908
▁uneven	-10.5913
low	-10.5915
▁paying	-10.5929
▁9.	-10.5931
ible	-10.5934
men	-10.5938
▁rich	-10.5939
▁Evidence	-10.5944
▁OTC	-10.5946
▁Household	-10.5949
▁hikes	-10.5957
▁invested	-10.5959
▁supportive	-10.5969
▁aggregates	-10.5972
▁elaborate	-10.5976
▁recognized	-10.5981
▁moves	-10.5981
▁sluggish	-10.5981
ach	-10.5982
▁cushion	-10.5982
▁Sa	-10.5988
▁accountable	-10.5989
▁Education	-10.5993
▁surprise	-10.5997
▁norms	-10.5999
▁qualitative	-10.6004
▁dramatically	-10.6005
▁influencing	-10.601
▁2004.	-10.601
▁warrant	-10.6015
▁les	-10.6016
▁protecting	-10.602
▁sizeable	-10.6025
▁2018,	-10.6047
ever	-10.605
▁suitable	-10.6054
▁sensitivity	-10.6057
▁relief	-10.6059
3.	-10.6067
13	-10.6068
▁liberalization	-10.607
▁Graph	-10.6076
▁House	-10.6087
▁Activity	-10.6087
▁evening	-10.6092
▁administrative	-10.6098
▁closing	-10.6098
▁Regional	-10.6099
▁ABS	-10.6099
▁table	-10.6099
▁publish	-10.6101
▁stabilization	-10.6103
inflation	-10.6108
▁imported	-10.611
ably	-10.6112
▁Brothers	-10.6114
▁researchers	-10.6115
▁pushing	-10.6121
▁recessions	-10.6125
▁Trichet	-10.6126
▁exploit	-10.6126
▁2021,	-10.6133
▁meaning	-10.6134
▁proactive	-10.6141
▁anchoring	-10.6144
▁Li	-10.6144
ign	-10.6147
▁centres	-10.6152
▁20%	-10.6155
site	-10.6164
ES	-10.6164
▁surprising	-10.6169
▁Assessment	-10.617
▁2019,	-10.6171
▁remove	-10.6174
than	-10.6178
▁Inclusion	-10.6183
▁Next	-10.6185
▁pushed	-10.6185
▁Philippine	-10.619
king	-10.6196
du	-10.6197
▁Change	-10.62
▁OF	-10.6203
▁circulation	-10.6204
▁cultural	-10.6208
▁floor	-10.6209
serv	-10.6215
▁impose	-10.6221
▁Systemic	-10.6225
denominated	-10.6226
▁deflationary	-10.6228
▁accurate	-10.623
▁bill	-10.6231
▁taxpayers	-10.6234
▁Macroeconomic	-10.6237
FS	-10.6244
▁accordingly	-10.6245
▁Productivity	-10.6265
▁implied	-10.6271
▁urban	-10.6274
▁criticism	-10.6277
▁1992	-10.6277
new	-10.6277
▁boosting	-10.6282
▁Depression	-10.6282
▁distortions	-10.6292
▁charges	-10.6295
▁Stock	-10.6311
▁corporates	-10.6312
▁Chief	-10.6316
▁talking	-10.6322
▁familiar	-10.6326
▁science	-10.6327
▁arrangement	-10.633
▁intelligence	-10.6333
▁papers	-10.6336
▁Recession	-10.6339
▁count	-10.6343
▁nevertheless	-10.6344
▁emphasized	-10.6346
▁35	-10.6349
▁Robert	-10.635
terconnectedness	-10.6351
▁explicitly	-10.6355
▁domestically	-10.6358
▁revisions	-10.6364
▁Chicago	-10.6365
▁Vi	-10.6367
▁wave	-10.6371
▁Ha	-10.6371
▁backstop	-10.6373
▁shortage	-10.6374
▁subsequently	-10.6374
▁precise	-10.6383
round	-10.6386
▁interconnected	-10.6394
▁FDI	-10.6401
country	-10.6402
▁emphasizes	-10.6403
und	-10.6403
▁Perhaps	-10.6407
▁impossible	-10.6407
▁2006,	-10.6408
▁examination	-10.6408
▁presents	-10.6421
ging	-10.6427
which	-10.6436
▁Dear	-10.644
▁opposite	-10.6441
▁electricity	-10.6441
ren	-10.6461
▁envisaged	-10.6462
▁stabilising	-10.647
ze	-10.6472
▁enables	-10.6475
▁plus	-10.6479
▁handle	-10.648
3%	-10.6483
▁Are	-10.6484
▁acknowledge	-10.6485
▁Specifically	-10.6487
▁Currently	-10.6493
▁Higher	-10.6501
▁undertaking	-10.6511
▁eine	-10.6514
▁backed	-10.6517
▁drawing	-10.6518
▁expensive	-10.6527
price	-10.6536
▁NBER	-10.6539
functioning	-10.6541
▁prevention	-10.6541
▁fuel	-10.6544
▁seminar	-10.6545
▁judgement	-10.6545
▁Clearly	-10.6547
nder	-10.6548
▁exacerbated	-10.6555
▁benefited	-10.6564
▁Unemployment	-10.6568
▁affordable	-10.6569
▁1960	-10.657
▁Reform	-10.6593
▁preced	-10.6595
▁1).	-10.6596
▁delivering	-10.6601
▁sight	-10.6602
▁chance	-10.6603
▁El	-10.6609
▁inevitably	-10.6614
including	-10.6628
▁dropped	-10.6638
▁educational	-10.6639
gr	-10.6639
▁downturns	-10.664
▁tighten	-10.6642
pi	-10.6649
▁tail	-10.665
▁completion	-10.6655
▁read	-10.6659
CE	-10.666
▁sought	-10.6661
▁cooperative	-10.6663
▁entails	-10.6669
▁severely	-10.6669
▁asymmetric	-10.6673
▁(2022)	-10.6685
▁Social	-10.6686
▁everything	-10.669
▁influences	-10.6692
not	-10.6692
▁preparation	-10.6698
▁relate	-10.6698
▁ladies	-10.6702
▁standing	-10.6706
▁resolved	-10.6712
che	-10.6713
▁Green	-10.6717
▁sale	-10.6723
▁Pro	-10.6723
▁impacting	-10.6724
ional	-10.6725
▁impacted	-10.6726
▁mergers	-10.6733
▁dominant	-10.6738
▁identification	-10.6738
▁shortcomings	-10.6738
▁correlation	-10.6739
▁capable	-10.6745
▁avoided	-10.6747
▁democratic	-10.6749
Frank	-10.6752
▁mining	-10.6755
▁failing	-10.6761
▁Allow	-10.6763
▁inputs	-10.6763
▁interact	-10.6765
▁4%	-10.6766
.10	-10.6772
▁ein	-10.6777
▁Its	-10.6778
▁integrate	-10.6778
▁dealers	-10.678
▁Much	-10.6782
▁Se	-10.6786
▁regarded	-10.6791
mer	-10.6791
▁Eurozone	-10.6797
▁rigorous	-10.6802
▁aging	-10.6804
▁po	-10.6806
▁unusual	-10.6808
ko	-10.681
▁restoring	-10.6815
▁Budget	-10.6815
▁aligned	-10.6816
ler	-10.6819
▁observe	-10.6826
▁profound	-10.6826
▁Your	-10.6826
▁catalyst	-10.6827
▁Article	-10.6833
red	-10.6849
▁dedicated	-10.6851
Slide	-10.6854
▁harder	-10.6861
▁Studies	-10.6862
▁2005,	-10.6864
offs	-10.6865
▁frequency	-10.6868
▁unless	-10.6872
▁occasions	-10.6874
▁coupled	-10.6875
▁[1]	-10.6875
▁Unfortunately	-10.688
▁obstacles	-10.6881
▁reinforcing	-10.6883
▁minimize	-10.6886
▁NPLs	-10.6896
▁Industry	-10.6898
▁forget	-10.6902
▁Caribbean	-10.6905
▁actors	-10.6907
▁Ra	-10.6909
▁write	-10.6919
▁provisioning	-10.6922
▁warranted	-10.6922
▁exceeded	-10.6923
▁inevitable	-10.694
▁comply	-10.6941
▁tomorrow	-10.6946
▁covering	-10.695
▁Constitution	-10.6952
▁administration	-10.696
▁cutting	-10.6963
▁historic	-10.6964
▁Network	-10.6965
▁simultaneously	-10.6973
eu	-10.6973
▁2024.	-10.6973
▁Malta	-10.6976
▁widening	-10.6979
▁sort	-10.6982
▁CRA	-10.6985
ud	-10.6988
sen	-10.6991
▁Should	-10.6992
▁interested	-10.6995
▁Ko	-10.6996
09	-10.7002
▁hardly	-10.7005
▁freedom	-10.7007
▁connected	-10.7015
▁travel	-10.7018
▁harm	-10.7021
▁joining	-10.7024
▁applicable	-10.7025
▁trajectory	-10.7025
▁suffered	-10.703
going	-10.7036
▁stabilizing	-10.7037
▁subsidiaries	-10.7037
▁Labour	-10.7041
200	-10.7045
▁Significant	-10.7049
io	-10.7054
▁outlined	-10.7056
istic	-10.7067
▁band	-10.7078
▁acute	-10.7079
▁outset	-10.7079
▁offshore	-10.708
▁properties	-10.7086
▁onset	-10.7089
▁happening	-10.7096
▁deviation	-10.7097
▁2).	-10.7109
▁nine	-10.7111
▁solve	-10.7113
▁financially	-10.7117
▁Increased	-10.7118
ik	-10.7121
▁globe	-10.7122
▁preferences	-10.7127
▁aggressive	-10.7134
▁possibilities	-10.7135
▁reviews	-10.7139
▁bearing	-10.714
▁Michael	-10.7141
▁bankruptcy	-10.7141
▁1993	-10.7141
▁excellent	-10.7147
▁Albanian	-10.7152
▁demonstrate	-10.7152
▁impaired	-10.7154
▁unions	-10.7154
set	-10.7157
▁Secondly	-10.7162
owned	-10.717
▁Where	-10.717
▁equities	-10.7171
j	-10.7175
▁head	-10.7177
▁picked	-10.7183
▁outline	-10.7184
▁secured	-10.7189
▁ist	-10.719
▁twice	-10.7196
▁leaving	-10.7209
▁Dodd	-10.7209
▁generating	-10.7215
▁optimism	-10.7218
rd	-10.7218
▁leveraging	-10.7219
▁systematic	-10.7224
▁distinction	-10.7226
▁protracted	-10.7227
▁shorter	-10.7227
▁upturn	-10.7229
▁adding	-10.7233
▁SARB	-10.7234
pre	-10.7238
▁reap	-10.7244
▁sa	-10.7247
▁Di	-10.725
▁differentials	-10.7253
fr	-10.7257
▁-2	-10.7259
▁toolkit	-10.7264
▁Within	-10.7266
▁enterprise	-10.7273
fer	-10.7276
▁afternoon	-10.7277
being	-10.7278
▁normalisation	-10.7281
▁Importance	-10.7282
▁suffer	-10.7287
ice	-10.7288
▁regulate	-10.7289
▁heavy	-10.7289
▁pan	-10.7298
ip	-10.7299
▁unsecured	-10.7302
▁persons	-10.7316
▁intra	-10.7316
▁changeover	-10.7322
▁closed	-10.7323
▁happens	-10.7339
▁Bond	-10.7344
▁won	-10.7344
▁refers	-10.735
▁translate	-10.7351
▁classes	-10.7355
▁expects	-10.736
▁British	-10.7364
int	-10.7365
▁deepen	-10.7366
▁weigh	-10.7367
▁reviewing	-10.7372
▁promise	-10.7372
▁intense	-10.7377
▁ma	-10.7377
▁mit	-10.7383
▁strive	-10.7383
▁Measures	-10.7385
▁fields	-10.7386
Bank	-10.7387
▁(2020),	-10.7391
▁returning	-10.7393
▁Protection	-10.7396
▁vigilant	-10.7396
▁societies	-10.7402
▁prerequisite	-10.7402
iii	-10.7404
▁returned	-10.7409
▁embedded	-10.7415
▁2025	-10.7415
▁performed	-10.7417
▁stocks	-10.7417
war	-10.7419
▁Countries	-10.7421
▁stimulating	-10.7421
▁amongst	-10.7431
18	-10.7431
▁Still	-10.7434
▁notion	-10.7442
▁Total	-10.7443
▁perceptions	-10.745
▁du	-10.7453
▁informal	-10.746
▁deliberations	-10.7465
such	-10.747
▁Action	-10.7474
▁fire	-10.7476
va	-10.7478
▁Rates	-10.7485
sion	-10.7486
▁Sentral	-10.7491
▁2003.	-10.7491
han	-10.7493
▁debit	-10.7494
▁Firms	-10.7496
▁Impact	-10.7504
▁Well	-10.7505
▁Role	-10.7509
ay	-10.7511
▁fight	-10.7514
▁1999.	-10.7521
▁sectoral	-10.7522
▁separation	-10.7522
ab	-10.7523
▁succeed	-10.7524
▁updated	-10.7526
ue	-10.7529
▁attacks	-10.753
interest	-10.753
▁lags	-10.7534
ction	-10.7535
CFT	-10.7537
▁procedure	-10.7539
▁purchased	-10.754
▁essence	-10.7542
▁rationale	-10.7543
▁guests	-10.7543
▁parameters	-10.7544
▁jointly	-10.7545
▁unlike	-10.755
▁method	-10.7558
▁75	-10.756
▁Center	-10.7561
▁applying	-10.7565
▁city	-10.7565
▁Po	-10.757
▁exert	-10.7573
▁children	-10.7574
▁Eastern	-10.7574
▁got	-10.7575
1.	-10.7578
▁harmonisation	-10.758
▁Lower	-10.7592
▁Scheme	-10.7599
▁drag	-10.76
▁dependence	-10.7615
dy	-10.7616
▁fragile	-10.7619
▁1991	-10.7619
back	-10.7634
▁Net	-10.7635
▁repair	-10.7636
▁joined	-10.7641
▁usage	-10.7642
▁dispersion	-10.7644
80	-10.765
▁te	-10.7652
ins	-10.7657
▁para	-10.7658
▁acknowledged	-10.7659
hr	-10.7659
▁swaps	-10.7664
▁Governments	-10.7666
▁judged	-10.767
▁cities	-10.7671
▁frequent	-10.7672
▁exceptionally	-10.7676
▁Directors	-10.7684
▁Strengthening	-10.7685
▁partnerships	-10.7693
▁tailored	-10.7694
▁him	-10.7697
▁Like	-10.7697
▁versus	-10.7703
▁serving	-10.7703
▁accordance	-10.7703
state	-10.7707
ld	-10.7711
▁reversal	-10.7715
▁engaging	-10.7716
▁promising	-10.7716
▁IV	-10.7717
▁Standard	-10.7718
▁balancing	-10.7718
▁appreciated	-10.772
▁acceptance	-10.7723
▁explaining	-10.773
▁Ca	-10.7737
▁overview	-10.7738
that	-10.7742
▁economist	-10.7754
ants	-10.7754
▁bridge	-10.7755
ward	-10.7757
ight	-10.776
▁divergence	-10.7762
▁registered	-10.7768
07	-10.7771
▁replace	-10.7774
▁bigger	-10.7776
▁typical	-10.7778
▁benchmarks	-10.778
▁Each	-10.7783
▁Taking	-10.7786
▁Together	-10.7788
▁calculated	-10.7791
Z	-10.7802
▁accelerating	-10.7805
▁answers	-10.7807
▁Besides	-10.7814
▁Eurostat	-10.7814
▁policymaking	-10.7816
wi	-10.782
mit	-10.7821
▁Espa	-10.7824
▁smoothly	-10.7826
▁endeavour	-10.7827
ile	-10.7831
▁Regarding	-10.7833
▁operates	-10.7834
▁generations	-10.7835
▁harmonised	-10.7835
.11	-10.7841
merely	-10.7843
▁Negara	-10.7847
▁hearing	-10.7854
▁formulation	-10.7861
▁justified	-10.7863
CI	-10.787
▁2002.	-10.7875
▁prompt	-10.7879
▁Settlement	-10.7881
▁buying	-10.7883
Managing	-10.7886
▁sides	-10.7892
▁dampen	-10.7893
▁wind	-10.7899
▁sich	-10.7904
IC	-10.7907
▁forthcoming	-10.7908
PI	-10.7913
▁disposal	-10.7913
zi	-10.7917
▁Covid	-10.792
▁professionals	-10.792
▁deemed	-10.7923
too	-10.7928
▁Special	-10.7933
▁exploring	-10.7933
▁Danish	-10.7933
▁older	-10.7935
▁evaluating	-10.7939
▁twenty	-10.7939
▁ethical	-10.7939
▁heard	-10.7943
▁(2018),	-10.7948
▁Dis	-10.795
▁striking	-10.7953
▁quote	-10.7954
▁update	-10.7954
▁aversion	-10.7959
▁indirectly	-10.7965
▁tradition	-10.797
like	-10.7976
▁derived	-10.7977
mb	-10.7979
▁debts	-10.7981
24	-10.7987
assets	-10.7997
▁popular	-10.7998
▁enlargement	-10.8
▁(2017),	-10.8
ster	-10.8002
▁Transparency	-10.8003
▁intervene	-10.8006
▁bottlenecks	-10.8006
▁Changes	-10.8011
▁fashion	-10.8013
▁safer	-10.8014
▁Sustainable	-10.8019
▁hub	-10.802
▁Macroprudential	-10.8021
lar	-10.8023
▁defence	-10.8028
▁flat	-10.8032
balance	-10.8034
pt	-10.8038
ern	-10.8044
▁Brazil	-10.8046
quarter	-10.8048
▁monitored	-10.8059
▁mixed	-10.8061
▁uniform	-10.8065
▁Emphasis	-10.8067
par	-10.8068
▁Force	-10.8076
17	-10.8076
▁clean	-10.8077
▁reflection	-10.8084
▁lecture	-10.8087
▁undoubtedly	-10.8087
▁Wage	-10.8088
form	-10.8089
dic	-10.8091
▁...	-10.8097
▁Su	-10.8098
▁transitory	-10.81
▁counteract	-10.8101
▁exists	-10.8104
▁assigned	-10.8106
▁constitute	-10.8118
▁Expectations	-10.8121
▁Governance	-10.8121
▁measuring	-10.8121
▁guided	-10.8122
▁HKMA	-10.8124
▁Bill	-10.8125
▁root	-10.8134
▁genuine	-10.8134
▁deeply	-10.814
▁3).	-10.8141
▁depository	-10.8143
▁category	-10.8149
26	-10.8149
old	-10.8154
▁desire	-10.8155
▁overly	-10.8155
▁coin	-10.8163
▁materials	-10.8165
▁Stress	-10.8175
▁characterized	-10.8176
▁Bangko	-10.8178
▁sterling	-10.8182
▁urgent	-10.8182
ja	-10.8186
▁transport	-10.8187
▁Principles	-10.8191
▁doubled	-10.8194
▁unusually	-10.8196
▁supervise	-10.8202
▁300	-10.8203
▁holders	-10.8208
▁unnecessary	-10.8209
▁mature	-10.8209
▁realistic	-10.821
▁servicing	-10.821
▁bills	-10.8213
▁accessible	-10.8217
▁session	-10.8221
▁2004,	-10.8223
▁continuity	-10.8223
▁Ka	-10.8227
▁Quarterly	-10.823
▁Recovery	-10.8236
▁hedging	-10.8243
▁committees	-10.8244
▁appeared	-10.8244
▁regardless	-10.8248
▁1999,	-10.8253
▁combat	-10.8255
▁basket	-10.8257
gan	-10.8259
▁headwinds	-10.8265
23	-10.8266
▁fears	-10.8272
BC	-10.8274
▁illustrated	-10.8274
4.	-10.8275
bl	-10.8282
▁location	-10.8283
▁Middle	-10.8284
▁2023,	-10.8296
▁valuations	-10.8298
▁Progress	-10.8298
▁si	-10.8303
▁operators	-10.8305
▁summary	-10.8312
▁Integration	-10.8319
federalreserve	-10.832
▁autonomy	-10.8326
ST	-10.8326
▁Standards	-10.8326
▁boards	-10.8328
▁sold	-10.8328
ich	-10.8332
▁cap	-10.8339
▁belief	-10.8339
▁weaken	-10.8345
▁Keynote	-10.8347
▁nicht	-10.8347
▁acted	-10.8356
▁budgets	-10.8356
▁length	-10.8357
ple	-10.8359
▁acts	-10.8365
known	-10.8365
▁written	-10.837
▁ensured	-10.8371
As	-10.8372
▁amounted	-10.8373
▁Woods	-10.8375
▁facts	-10.8381
▁version	-10.8382
▁newly	-10.8388
▁Fintech	-10.8388
▁Mortgage	-10.839
▁Support	-10.8394
▁tender	-10.8397
▁Cross	-10.8401
prime	-10.8402
▁thorough	-10.8402
▁Building	-10.8403
▁Strong	-10.8405
▁Lecture	-10.8409
▁vote	-10.8409
targeting	-10.841
▁tended	-10.8411
▁respects	-10.8415
▁benefiting	-10.8418
▁das	-10.8422
down	-10.8427
IS	-10.8432
▁Ex	-10.8433
▁delighted	-10.8437
▁perfect	-10.8447
art	-10.8448
▁unemployed	-10.8452
▁strains	-10.8454
▁she	-10.8456
▁profession	-10.8461
▁CCP	-10.8463
▁whatever	-10.8466
▁competence	-10.8472
▁h	-10.8485
▁[2]	-10.8485
▁juncture	-10.8486
▁ended	-10.8489
figure	-10.8493
ofengland	-10.8493
pl	-10.8494
▁opened	-10.8499
▁universal	-10.8501
▁seemed	-10.8507
▁proceed	-10.8509
▁sp	-10.8513
▁document	-10.8521
▁incomplete	-10.8521
▁Mario	-10.8531
▁advancements	-10.8532
▁strike	-10.8542
▁Financing	-10.8548
▁Gu	-10.8548
▁shaping	-10.855
▁stringent	-10.855
▁adversely	-10.8552
intensive	-10.8557
▁derivative	-10.8558
▁app	-10.8558
AP	-10.8559
▁Can	-10.8567
▁reversed	-10.8569
gg	-10.8572
▁40%	-10.8577
ite	-10.859
▁threaten	-10.8598
▁methodology	-10.8599
▁skilled	-10.8601
▁implicit	-10.8607
▁boosted	-10.8609
tu	-10.8612
▁consists	-10.8614
▁intellectual	-10.862
22	-10.8621
credit	-10.8622
▁2001.	-10.8626
▁tried	-10.8627
▁adaptation	-10.8632
▁varying	-10.8641
▁10-	-10.8646
▁Beyond	-10.8646
▁academics	-10.8646
▁places	-10.8648
▁art	-10.8652
tri	-10.8655
▁center	-10.8661
▁differently	-10.8676
▁directed	-10.8681
▁Going	-10.8682
▁seeks	-10.8682
ups	-10.8684
▁capability	-10.8685
RA	-10.8688
▁Post	-10.8689
banking	-10.869
▁forecasters	-10.8695
▁Ge	-10.8696
▁2003,	-10.8699
lich	-10.8709
▁afford	-10.8715
▁Short	-10.8716
▁substitute	-10.8724
▁judge	-10.8725
▁upswing	-10.8728
▁grateful	-10.8728
▁2000.	-10.8734
▁border	-10.8734
qu	-10.8734
▁Concluding	-10.8738
75	-10.8739
▁Analysis	-10.8742
▁section	-10.8747
▁excessively	-10.8751
▁errors	-10.8757
cost	-10.876
▁stablecoins	-10.8762
▁consecutive	-10.8764
▁unintended	-10.8764
▁relies	-10.8764
▁jurisdiction	-10.8767
Claude	-10.8771
▁taxation	-10.8778
▁Club	-10.8778
ee	-10.8781
▁gr	-10.8781
▁expenses	-10.8784
▁4).	-10.8784
tal	-10.8792
▁pa	-10.8804
▁spillover	-10.8805
▁entering	-10.8807
▁Paul	-10.8808
▁inventory	-10.8815
▁producers	-10.8816
▁safeguards	-10.8818
▁spectrum	-10.8822
Global	-10.8831
▁foremost	-10.8836
▁Man	-10.8841
▁Pillar	-10.8842
▁burdens	-10.8842
▁confirm	-10.8854
ical	-10.8861
▁traditionally	-10.8863
▁(2019),	-10.8866
are	-10.8867
▁APP	-10.887
▁stagnation	-10.8873
▁krona	-10.8873
▁Balance	-10.8875
▁deteriorated	-10.8878
▁conditional	-10.8878
▁replaced	-10.888
▁Alan	-10.8882
▁2.0	-10.8886
▁Table	-10.8888
▁Nor	-10.8892
▁mutually	-10.89
tive	-10.8905
EC	-10.8915
rt	-10.8915
FOMC	-10.8927
▁Malaysian	-10.8928
▁reviewed	-10.893
ped	-10.8931
▁red	-10.8934
ick	-10.8937
sp	-10.8938
▁mo	-10.8938
▁qui	-10.8939
▁500	-10.894
▁Project	-10.8942
▁turnover	-10.8944
▁NPL	-10.8945
CA	-10.8946
▁stake	-10.8954
▁futures	-10.8957
▁45	-10.8959
▁Thomas	-10.8961
port	-10.8961
▁promotes	-10.8964
▁borne	-10.8972
▁skill	-10.8975
▁residents	-10.898
▁indications	-10.898
▁differential	-10.8981
▁dynamism	-10.8983
▁privacy	-10.8983
▁Model	-10.8983
▁painful	-10.8984
▁Ga	-10.8995
▁books	-10.8996
▁50%	-10.8998
▁repayment	-10.8999
▁Time	-10.9003
▁entrepreneurs	-10.9004
les	-10.9007
ga	-10.901
▁Uncertainty	-10.9011
▁bold	-10.9013
▁positively	-10.9016
reaching	-10.9022
act	-10.9026
fe	-10.9027
▁venture	-10.9027
▁Andrew	-10.9029
▁constraint	-10.9031
ture	-10.9032
htm	-10.9038
▁Ultimately	-10.9042
▁doesn	-10.9044
▁promotion	-10.9044
▁rand	-10.9048
▁2001,	-10.9049
-1990	-10.9051
▁transmitted	-10.9057
▁men	-10.9057
▁pol	-10.9059
▁Trust	-10.9061
▁ties	-10.9064
▁Highlight	-10.9072
big	-10.9073
▁externalities	-10.9078
▁alter	-10.9086
▁da	-10.9091
▁employ	-10.9098
ses	-10.9101
▁obligation	-10.9102
net	-10.9107
▁prefer	-10.9107
▁analyse	-10.911
▁surely	-10.9114
cer	-10.9118
ib	-10.9118
▁compare	-10.9122
▁counterparts	-10.9123
rr	-10.9124
ori	-10.9124
▁delayed	-10.9125
▁fruitful	-10.9126
▁gathering	-10.913
▁paradigm	-10.9132
iz	-10.9149
▁concepts	-10.9151
▁Russian	-10.9158
ire	-10.9159
▁weights	-10.916
▁1.0	-10.9164
▁Lisbon	-10.9169
cl	-10.9171
▁materialise	-10.9172
▁Loan	-10.9172
President	-10.9174
▁integrating	-10.9177
▁removing	-10.9177
▁(2023),	-10.9184
▁ledger	-10.9188
▁Inter	-10.9188
28	-10.9188
▁exceeding	-10.9191
▁benign	-10.9192
▁domain	-10.9192
▁denominated	-10.9192
▁controlling	-10.9196
▁computer	-10.9201
cu	-10.9201
▁USA	-10.9201
▁insight	-10.9201
▁producing	-10.9201
▁distinguish	-10.9209
ship	-10.9212
▁invited	-10.9219
▁houses	-10.9221
▁alternatives	-10.9224
▁continent	-10.9229
▁abrupt	-10.9238
▁por	-10.924
ub	-10.9244
▁ICT	-10.925
▁warning	-10.9251
▁Again	-10.9259
27	-10.9263
hn	-10.9264
▁horizons	-10.9269
35	-10.927
00	-10.9273
▁0.0	-10.9284
ek	-10.9285
–	-10.9287
▁arises	-10.9287
▁Compar	-10.929
▁strengths	-10.9291
▁ne	-10.9301
har	-10.9301
▁Pa	-10.9303
▁minimise	-10.9306
▁viability	-10.9306
▁(2016),	-10.9306
▁transform	-10.9312
▁engine	-10.9324
▁diese	-10.9326
▁diversify	-10.9328
▁listed	-10.9339
▁2%.	-10.934
▁collectively	-10.9348
▁mitigation	-10.9351
▁binding	-10.9355
ned	-10.9355
▁alleviate	-10.9359
▁Canadians	-10.9359
▁Internet	-10.9359
▁PCE	-10.9363
▁shortly	-10.9365
▁believed	-10.9368
▁intensity	-10.9374
▁spot	-10.9375
▁ban	-10.9375
▁Term	-10.9376
ssen	-10.9378
▁ng	-10.9378
▁withdrawal	-10.9379
▁incorporated	-10.938
500	-10.9397
▁division	-10.9398
▁robustness	-10.9399
▁30%	-10.9399
US	-10.9404
▁favor	-10.9412
▁fellow	-10.9414
▁Pe	-10.9414
ron	-10.9417
▁disruptive	-10.9421
▁acceptable	-10.9424
▁tremendous	-10.9428
▁outreach	-10.9431
▁annum	-10.9436
▁peso	-10.9444
▁feed	-10.9446
▁scrutiny	-10.9452
▁dem	-10.946
▁whom	-10.9464
▁convey	-10.9467
▁protected	-10.9468
▁settle	-10.9469
▁progressively	-10.9472
▁privilege	-10.9476
▁handling	-10.948
▁excluded	-10.9487
▁Recently	-10.9488
SA	-10.9489
▁watch	-10.9497
spite	-10.9501
bi	-10.9502
.12	-10.9507
▁oversee	-10.9509
▁danger	-10.9518
lin	-10.9522
▁Peter	-10.9522
▁intensive	-10.9522
str	-10.9523
unt	-10.9525
▁signed	-10.9528
▁120	-10.9533
▁(3)	-10.954
▁occurs	-10.954
take	-10.9542
▁exchanges	-10.9543
ert	-10.9548
▁2030	-10.9549
▁ca	-10.9569
▁annually	-10.9575
▁adapting	-10.9576
ix	-10.9578
▁employee	-10.9581
▁outbreak	-10.9584
▁virtuous	-10.9584
dd	-10.9587
▁Introductory	-10.9591
▁indices	-10.9592
▁negatively	-10.9594
▁sample	-10.96
05	-10.96
▁prompted	-10.9605
▁Service	-10.9608
▁scheduled	-10.9608
▁ante	-10.9612
▁database	-10.9616
▁Security	-10.9616
▁(2021),	-10.9623
▁severity	-10.9623
▁dominated	-10.9626
▁PRA	-10.9633
▁hands	-10.9637
▁Commercial	-10.9639
jo	-10.9643
▁Western	-10.9647
▁swift	-10.9648
▁Commerce	-10.9655
▁Symposium	-10.9655
ack	-10.9657
▁booms	-10.9657
▁user	-10.9658
▁repercussions	-10.9663
▁disturbances	-10.9669
▁imbalance	-10.9671
▁bar	-10.9673
▁evidenced	-10.9675
party	-10.9675
▁CY	-10.9676
▁Pre	-10.9683
gar	-10.9686
▁organized	-10.9686
▁remote	-10.9686
▁ignore	-10.9687
▁alike	-10.9688
▁Part	-10.9693
hu	-10.9697
▁induce	-10.97
▁complacency	-10.9702
▁receiving	-10.9702
▁vigilance	-10.9702
▁bid	-10.9703
▁spent	-10.9703
▁Williams	-10.9706
▁Bretton	-10.9706
▁clearer	-10.9707
▁Reforms	-10.9709
▁Te	-10.9714
▁store	-10.9718
▁recommended	-10.9719
▁1930	-10.9721
br	-10.9721
▁Ratio	-10.9725
▁steer	-10.9726
▁lift	-10.973
▁considers	-10.9737
▁vi	-10.9739
fin	-10.9741
▁Internal	-10.9742
▁2.5%	-10.9746
▁demanding	-10.9746
▁relying	-10.9746
ow	-10.9749
▁integral	-10.975
▁attempts	-10.9752
▁underpinned	-10.9758
ug	-10.976
▁performing	-10.9762
uc	-10.9764
▁Up	-10.9765
▁overheating	-10.9766
▁150	-10.9775
▁slight	-10.9776
ny	-10.9777
▁/	-10.9778
▁party	-10.9779
▁gaining	-10.978
▁Policies	-10.9782
▁protectionism	-10.9793
▁employers	-10.9793
▁Firstly	-10.9796
▁bi	-10.9805
with	-10.9809
▁Sub	-10.981
▁Conduct	-10.9814
▁complemented	-10.9816
▁wait	-10.9818
▁officials	-10.9818
90	-10.9822
▁permitted	-10.9822
▁noting	-10.9827
▁impetus	-10.983
▁phases	-10.9833
▁exporters	-10.9837
03	-10.9841
AC	-10.9844
▁tested	-10.9846
▁varied	-10.9846
▁auch	-10.9847
▁Romania	-10.9849
▁Rs	-10.9853
▁marks	-10.9854
▁myself	-10.9855
▁cheaper	-10.9857
MI	-10.986
▁interpreted	-10.9863
6.	-10.9866
▁defining	-10.987
ari	-10.9872
bu	-10.9874
mon	-10.9878
▁fragmented	-10.988
▁preferred	-10.9887
RO	-10.9893
▁settled	-10.9894
▁Lessons	-10.9895
▁sukuk	-10.9903
▁steep	-10.9907
▁Issue	-10.992
▁Retail	-10.9927
▁curb	-10.9928
▁upper	-10.993
5.	-10.9933
▁-1	-10.9938
▁starts	-10.994
▁[3]	-10.9942
▁publicly	-10.9942
▁Pilipinas	-10.9943
▁Staff	-10.9952
▁schools	-10.9955
CP	-10.9958
▁geographical	-10.9963
▁cr	-10.9966
06	-10.9967
▁Though	-10.9976
▁milestone	-10.9977
▁responsive	-10.9977
▁upcoming	-10.9981
▁stresses	-10.9984
▁Historical	-10.9988
ungen	-10.9999
▁Joint	-11
▁2002,	-11.0003
▁offices	-11.0006
▁Com	-11.0007
use	-11.0008
▁containing	-11.0009
▁removed	-11.001
mm	-11.0014
▁Chamber	-11.0017
▁FI	-11.0017
▁readily	-11.0025
▁frontier	-11.0026
▁Members	-11.0028
▁5).	-11.0031
ph	-11.0034
01	-11.0035
▁eye	-11.0036
▁Macro	-11.0036
▁detect	-11.0037
ration	-11.0039
▁illiquid	-11.004
▁Thai	-11.0042
▁sanctions	-11.005
▁paths	-11.0053
▁checks	-11.0053
val	-11.0056
▁expense	-11.006
▁foresee	-11.006
IMF	-11.0065
▁friends	-11.0069
▁Implications	-11.0071
BA	-11.0072
▁funded	-11.0074
▁NBFCs	-11.0075
▁11.	-11.0075
▁realized	-11.0082
▁preference	-11.0085
▁representative	-11.0086
▁defaults	-11.0087
ris	-11.0094
table	-11.0106
▁Likewise	-11.0107
98	-11.0107
▁dass	-11.0108
▁consequently	-11.0111
▁encourages	-11.0112
work	-11.0115
▁rigidities	-11.0115
▁guiding	-11.0124
▁utmost	-11.0124
▁amplify	-11.0124
▁whereby	-11.0126
▁indication	-11.0127
▁West	-11.013
▁diminished	-11.0131
fail	-11.0132
▁imagine	-11.0133
70	-11.0138
▁Gross	-11.0141
▁selected	-11.0154
▁Work	-11.0154
even	-11.0155
▁Kansas	-11.0157
▁Mainland	-11.0157
ki	-11.0158
▁Will	-11.0162
▁settlements	-11.0163
▁Ensur	-11.0167
▁terrorist	-11.0168
ong	-11.0171
▁conservative	-11.0173
NA	-11.0174
Central	-11.0175
▁comp	-11.0181
ory	-11.0187
▁frictions	-11.0188
ada	-11.0191
Inflation	-11.0192
▁formed	-11.0197
▁swings	-11.02
tica	-11.02
▁sovereigns	-11.02
▁excesses	-11.0205
▁Greater	-11.0205
▁Political	-11.0207
▁twelve	-11.0207
7.	-11.021
▁mode	-11.0211
▁instances	-11.0212
▁Control	-11.0215
▁feasible	-11.0223
▁absolute	-11.0225
▁est	-11.0227
▁looked	-11.023
▁obtained	-11.0231
8.	-11.0231
▁tech	-11.0238
▁History	-11.024
▁facilitates	-11.0242
▁kinds	-11.0245
▁civil	-11.0248
▁unwinding	-11.0257
▁vehicle	-11.0261
▁Americans	-11.0264
▁deceleration	-11.0274
rk	-11.0276
▁Potential	-11.0278
▁units	-11.0282
▁illustrates	-11.0282
▁sooner	-11.0288
▁Between	-11.029
▁duty	-11.0291
eg	-11.0294
▁respondents	-11.0307
▁(2015),	-11.031
De	-11.0314
rn	-11.0319
▁innovate	-11.0324
▁losing	-11.0328
▁microprudential	-11.0328
▁youth	-11.033
▁economically	-11.033
▁constructive	-11.0333
▁comparative	-11.0343
▁Systems	-11.0359
At	-11.0363
FR	-11.0363
▁Initiative	-11.0364
▁60%	-11.0364
▁(2003)	-11.0366
IT	-11.0376
▁Brussels	-11.0379
▁designing	-11.0379
▁located	-11.0384
ez	-11.039
▁pilot	-11.04
Washington	-11.0404
▁imp	-11.0405
▁mistakes	-11.0412
▁acquire	-11.0419
▁concentrate	-11.0419
▁transportation	-11.0419
SB	-11.0425
▁bulk	-11.0426
▁legitimacy	-11.0426
▁enhances	-11.0427
▁except	-11.0431
ping	-11.0438
▁constitutes	-11.0438
▁fill	-11.0443
▁Unlike	-11.0443
▁vibrant	-11.0452
▁mandatory	-11.0452
cht	-11.0454
▁rescue	-11.0454
▁earn	-11.0457
▁character	-11.0466
▁dominance	-11.0469
▁software	-11.0469
▁instrumental	-11.0476
▁2000,	-11.0476
▁loose	-11.0479
▁Dutch	-11.0486
ina	-11.0487
▁Understanding	-11.049
▁directions	-11.0494
▁tangible	-11.0494
BO	-11.0495
▁tariffs	-11.0502
TI	-11.0503
▁straightforward	-11.0503
▁discretionary	-11.0504
chi	-11.0505
▁opinions	-11.0505
ken	-11.0507
▁Importantly	-11.0507
ati	-11.0511
▁oriented	-11.0512
March	-11.0516
▁RTGS	-11.0519
▁Greenspan	-11.052
▁code	-11.0522
EP	-11.0524
idad	-11.0528
teroperability	-11.0529
▁explanations	-11.0531
elle	-11.0532
04	-11.0534
29	-11.0535
ement	-11.0536
▁Industrial	-11.0537
▁guaranteed	-11.0538
EA	-11.054
speeches	-11.0544
▁ranging	-11.0545
▁spare	-11.0547
rit	-11.0548
▁sustaining	-11.0552
▁3.5	-11.0552
dis	-11.0556
▁DLT	-11.0558
▁execution	-11.0563
▁amendments	-11.0566
▁alignment	-11.0566
▁provider	-11.0572
date	-11.0574
),"	-11.0582
monetary	-11.0585
ries	-11.0594
▁Ein	-11.0598
99	-11.0604
ified	-11.0605
corporating	-11.0607
▁deficiencies	-11.0607
▁6%	-11.0608
▁pressing	-11.0615
▁trouble	-11.0626
▁swiftly	-11.0631
▁Policymakers	-11.0633
ai	-11.0635
MP	-11.0637
▁politicians	-11.0641
▁basically	-11.0643
▁exclusively	-11.0645
▁Barbados	-11.065
long	-11.0657
▁doubts	-11.0658
▁assuming	-11.0659
▁Prime	-11.0663
▁spill	-11.0665
▁confronted	-11.0668
▁Pacific	-11.0676
▁digitalization	-11.0676
▁accurately	-11.0678
SI	-11.0679
ste	-11.0679
▁Ne	-11.0681
▁publishing	-11.0684
▁tolerance	-11.0685
▁1.5%	-11.0689
fold	-11.0689
▁Experience	-11.0694
▁accommodate	-11.0696
eng	-11.0698
▁preparations	-11.0701
▁congratulate	-11.0703
ici	-11.0706
▁conferences	-11.0709
▁underpinning	-11.0712
▁compatible	-11.0712
▁specified	-11.0719
97	-11.0722
▁finds	-11.0726
▁mismatches	-11.0732
▁identity	-11.0738
ient	-11.0739
▁Effects	-11.0744
▁match	-11.0745
▁absolutely	-11.0745
▁Har	-11.0752
▁heterogeneity	-11.0755
shi	-11.0764
▁converge	-11.0766
▁collaborative	-11.0773
▁33	-11.0774
▁foreclosure	-11.0774
▁competent	-11.0782
▁Households	-11.0783
ok	-11.0786
ators	-11.0787
SR	-11.0788
▁readiness	-11.0791
▁overcoming	-11.0791
▁coordinate	-11.0793
rated	-11.0798
▁disorderly	-11.08
▁Whether	-11.0808
▁calibrated	-11.0809
▁honor	-11.0815
▁request	-11.0817
▁Tra	-11.0817
▁Secretary	-11.0817
▁abundant	-11.0817
▁1950	-11.0821
▁decisively	-11.0824
▁calibration	-11.083
▁controlled	-11.0831
▁representing	-11.0835
▁widened	-11.0835
▁(2014),	-11.084
We	-11.0843
▁95	-11.0843
▁ESM	-11.0846
▁notice	-11.0851
▁takaful	-11.0853
▁op	-11.0853
▁soft	-11.0854
▁underpin	-11.0855
▁halt	-11.086
▁Bloomberg	-11.0862
▁repurchase	-11.0862
▁transferred	-11.0863
sheet	-11.0868
ult	-11.0869
▁permanently	-11.0874
▁Tier	-11.0874
▁prevented	-11.0875
point	-11.0875
expected	-11.0876
▁speakers	-11.0878
▁08	-11.0881
▁burst	-11.0891
uch	-11.0892
▁competitors	-11.0896
▁Sri	-11.0897
▁Companies	-11.0897
▁Seminar	-11.0897
▁Efforts	-11.0906
▁realize	-11.0909
▁representation	-11.091
▁collect	-11.091
▁intentions	-11.0911
▁[4]	-11.0913
▁mild	-11.0924
To	-11.0939
▁subsidies	-11.0942
▁alert	-11.0944
Co	-11.0944
ification	-11.0945
▁transformed	-11.0947
▁artificial	-11.0954
▁enhancement	-11.0957
▁Society	-11.096
▁indispensable	-11.0969
q	-11.0971
▁FED	-11.0973
▁hinder	-11.0978
az	-11.0979
ments	-11.0984
▁apart	-11.0985
av	-11.0987
▁navigate	-11.0987
▁fraction	-11.0987
▁unified	-11.0989
▁exacerbate	-11.0989
▁contingent	-11.0993
currency	-11.0994
cur	-11.1004
▁na	-11.1005
▁removal	-11.1005
▁wir	-11.1006
▁circle	-11.101
▁contains	-11.1014
▁insured	-11.1016
▁partial	-11.1017
▁realise	-11.1018
▁addresses	-11.1032
▁advancing	-11.1032
▁continuation	-11.1032
▁decreasing	-11.1032
bil	-11.1039
▁Officer	-11.1041
▁hypothesis	-11.1041
ana	-11.1055
▁loop	-11.1055
▁Funds	-11.1057
▁Regulators	-11.106
▁mandated	-11.1064
▁virtual	-11.1068
▁MSMEs	-11.1069
▁prospective	-11.107
▁catch	-11.1071
thirds	-11.1071
▁assure	-11.1073
▁outright	-11.1074
▁stricter	-11.1076
Term	-11.1076
adjusted	-11.1076
▁adherence	-11.1078
▁Jackson	-11.1087
▁Pension	-11.1087
▁description	-11.1087
▁Access	-11.1091
▁peer	-11.1092
▁Foundation	-11.1096
▁attitude	-11.1101
▁15%	-11.1102
▁compromise	-11.1108
▁charged	-11.1108
▁mitigated	-11.1109
▁dampening	-11.1109
▁expecting	-11.111
los	-11.1114
▁destination	-11.1114
▁sponsored	-11.1124
▁covers	-11.1126
▁Es	-11.1131
▁visit	-11.1132
▁told	-11.1133
zu	-11.1135
▁attain	-11.1139
▁assurance	-11.1142
▁hiring	-11.1142
▁preliminary	-11.1142
▁FDIC	-11.1142
ku	-11.1144
▁mismatch	-11.1148
▁metrics	-11.1156
▁cloud	-11.1169
▁convenient	-11.1169
▁renminbi	-11.1169
▁werden	-11.1169
▁gather	-11.117
▁prevail	-11.117
win	-11.1179
▁repay	-11.1179
▁calculation	-11.1184
▁lo	-11.1186
▁profiles	-11.1186
▁Organization	-11.1188
.13	-11.1188
leg	-11.1193
▁variation	-11.1194
▁wonder	-11.1194
▁hosted	-11.1194
▁mass	-11.1201
▁governing	-11.1206
▁sustainably	-11.1207
▁improves	-11.1211
▁wanted	-11.1212
row	-11.1213
June	-11.1215
▁Micro	-11.1215
▁mindful	-11.1218
▁King	-11.1223
▁wisdom	-11.1225
▁geared	-11.1237
▁urge	-11.1238
▁banknote	-11.124
▁independently	-11.1241
▁ideal	-11.1245
▁thereafter	-11.1245
▁Investors	-11.1252
▁motivation	-11.1252
▁Cash	-11.1255
▁65	-11.1259
▁panic	-11.126
▁resolving	-11.1262
▁hat	-11.1264
▁Communication	-11.1265
▁Funding	-11.1265
▁His	-11.1265
app	-11.1272
▁moderated	-11.1276
▁deteriorating	-11.128
▁dangerous	-11.129
▁contact	-11.1296
▁completing	-11.1299
IB	-11.1302
dependent	-11.1304
▁Lu	-11.1304
urs	-11.1304
▁partially	-11.1306
▁acquired	-11.1306
▁competing	-11.1308
▁pensions	-11.1312
▁disaster	-11.1315
▁Income	-11.1317
▁adapted	-11.1317
▁Friedman	-11.1317
▁keen	-11.1317
▁carrying	-11.132
▁ba	-11.132
▁owned	-11.1321
-10	-11.1322
▁Additionally	-11.1331
▁anyone	-11.1331
▁documents	-11.1335
ham	-11.1337
DA	-11.1349
▁riskier	-11.1354
▁09	-11.1358
▁William	-11.1363
friendly	-11.1364
▁contingency	-11.1364
▁farmers	-11.1365
36	-11.1366
▁arm	-11.1368
▁spur	-11.1369
log	-11.137
▁trades	-11.1373
▁Bar	-11.1374
▁Technological	-11.1378
▁rent	-11.1378
▁broadening	-11.1379
▁permit	-11.1381
▁gratitude	-11.1383
igen	-11.1383
RB	-11.1384
▁Issues	-11.1386
how	-11.1392
▁storm	-11.1392
▁Cooperation	-11.1393
▁Does	-11.1395
▁asking	-11.1397
▁Energy	-11.1402
▁occurring	-11.1403
▁6).	-11.1411
▁repeatedly	-11.1416
▁emphasised	-11.1417
BI	-11.1423
berg	-11.1425
▁scarce	-11.143
▁realised	-11.1435
▁32	-11.1436
▁fee	-11.1438
▁Senior	-11.1439
▁attributable	-11.1439
▁distance	-11.1439
▁worsening	-11.144
▁breakdown	-11.1445
September	-11.1449
third	-11.145
▁owner	-11.1452
▁attracting	-11.1455
tes	-11.146
▁fix	-11.1461
ya	-11.1463
▁Car	-11.1464
▁spreading	-11.1472
▁peers	-11.1473
ition	-11.1475
▁Guests	-11.1477
▁Task	-11.1478
▁ending	-11.1479
▁commonly	-11.1484
ces	-11.149
▁guard	-11.1496
sta	-11.1498
▁correspond	-11.1499
▁CP	-11.1499
▁determinants	-11.1501
45	-11.1502
▁Average	-11.1506
▁External	-11.1506
▁entrenched	-11.1508
FT	-11.151
▁Nationalbank	-11.1512
▁proceeds	-11.1514
▁Ar	-11.1515
creditworthiness	-11.1515
▁coherent	-11.1515
▁remuneration	-11.1516
▁clarify	-11.1518
▁07	-11.1521
")	-11.1524
▁aside	-11.1524
▁Curve	-11.1525
▁Nordic	-11.1525
bit	-11.1526
CPI	-11.1527
▁embrace	-11.1527
pen	-11.1532
▁capacities	-11.1534
▁pivotal	-11.1535
▁reallocation	-11.1535
▁treated	-11.1535
▁phone	-11.1548
02	-11.1548
AR	-11.1555
▁fifth	-11.1556
▁debates	-11.1556
▁purely	-11.1558
▁fulfill	-11.1558
▁governors	-11.1559
speech	-11.1561
ordination	-11.1562
▁acquisitions	-11.157
▁Czech	-11.1572
▁examining	-11.1572
▁practitioners	-11.1573
▁explains	-11.1576
▁legitimate	-11.1583
▁1.2	-11.1583
ev	-11.1584
aka	-11.1584
▁Competition	-11.1592
▁award	-11.1592
more	-11.1593
▁(2024),	-11.1595
pp	-11.1595
▁Consider	-11.1603
tt	-11.1606
fu	-11.1622
▁gauge	-11.163
▁minus	-11.163
▁tonight	-11.163
cing	-11.1633
inflationary	-11.1636
▁satisfactory	-11.164
▁vor	-11.164
▁manageable	-11.1644
▁Equity	-11.1649
▁symposium	-11.1649
▁exercises	-11.1651
▁degrees	-11.1657
standing	-11.1661
▁deviate	-11.1662
▁auto	-11.1663
▁terrorism	-11.1663
▁puts	-11.1677
▁transforming	-11.1679
▁Direct	-11.1683
▁PEPP	-11.1687
▁ambition	-11.1688
sensitive	-11.169
▁corrective	-11.169
ley	-11.1691
▁Prudential	-11.1695
bar	-11.1695
▁comfort	-11.1696
▁variability	-11.1697
▁promptly	-11.1698
mis	-11.1699
pon	-11.17
▁8%	-11.1706
▁survive	-11.1707
EM	-11.1707
▁boundaries	-11.1708
▁restricted	-11.1717
hy	-11.1717
▁stem	-11.172
▁amplified	-11.1722
mal	-11.1723
▁crunch	-11.1727
▁edge	-11.173
gra	-11.1731
▁NGFS	-11.1734
IR	-11.1736
▁granular	-11.1736
FA	-11.174
▁broaden	-11.1742
ended	-11.1743
att	-11.1747
▁surprisingly	-11.1748
▁Hole	-11.1748
RE	-11.1749
▁0.1	-11.175
▁tough	-11.1754
▁exact	-11.176
ep	-11.176
▁inflow	-11.1762
right	-11.1762
ink	-11.1763
▁equipped	-11.1764
▁allocated	-11.1772
▁prudence	-11.1773
▁Ab	-11.1775
▁conversion	-11.1775
▁pretty	-11.1775
▁promoted	-11.1785
▁progressive	-11.1786
▁predominantly	-11.1788
▁precondition	-11.1789
▁conceptual	-11.1789
▁Home	-11.1794
▁Lanka	-11.1795
▁Ni	-11.1806
ique	-11.1806
ou	-11.1814
▁plausible	-11.1814
▁enforce	-11.1815
▁0.2	-11.1821
▁array	-11.1824
▁repeat	-11.1827
ini	-11.1829
31	-11.1834
▁inventories	-11.1834
▁buyers	-11.1836
og	-11.1849
hl	-11.185
▁Solvency	-11.1854
▁um	-11.1854
▁proposition	-11.1854
pri	-11.1855
▁learnt	-11.1855
▁messages	-11.187
▁Jul	-11.1874
▁automatically	-11.1874
▁materially	-11.1875
let	-11.1878
▁satisfy	-11.1883
▁Economies	-11.1883
▁Clearing	-11.1891
OR	-11.1891
▁Brookings	-11.1893
▁codes	-11.1896
▁yesterday	-11.1903
▁sc	-11.1904
hen	-11.1905
▁send	-11.1906
▁Forward	-11.1912
▁millions	-11.1913
▁duties	-11.1913
▁enjoyed	-11.1915
▁Ja	-11.1916
▁delays	-11.1922
tr	-11.1926
▁weighted	-11.1931
Economic	-11.1936
BS	-11.1936
▁college	-11.1937
▁operated	-11.1941
▁depreciated	-11.1946
▁Ta	-11.1947
▁7%	-11.1947
▁forex	-11.1951
▁[5]	-11.1953
▁grounds	-11.196
▁interpret	-11.1963
annual	-11.1966
%)	-11.1974
▁0.3	-11.1975
▁bolster	-11.1975
PE	-11.1989
▁examined	-11.1991
▁impression	-11.1992
▁Mu	-11.1996
▁peace	-11.1996
▁distressed	-11.1996
ain	-11.1999
▁payroll	-11.2003
▁Supply	-11.2009
▁SBP	-11.2012
▁ob	-11.202
▁parent	-11.2021
▁Luxembourg	-11.2022
▁rightly	-11.2031
▁relied	-11.2032
yo	-11.2035
ind	-11.2036
%	-11.2037
▁Resilience	-11.2042
▁organizational	-11.2044
html	-11.2045
▁famous	-11.2046
▁0.4	-11.205
▁gender	-11.2053
▁Apart	-11.2058
▁launching	-11.2061
▁minimal	-11.2062
▁notwithstanding	-11.2062
9.	-11.2069
▁attracted	-11.2069
SO	-11.2069
▁37	-11.208
▁upgrade	-11.2081
▁opposed	-11.2084
▁Job	-11.2085
▁worker	-11.2088
▁fragility	-11.2093
▁-4	-11.2094
ps	-11.2096
▁Yield	-11.2103
▁cu	-11.2108
▁spoke	-11.2108
▁voluntary	-11.2113
▁Target	-11.2113
▁tra	-11.2121
▁collaborate	-11.2123
▁13.	-11.2125
▁Go	-11.2128
▁predicted	-11.2128
▁mere	-11.2134
II	-11.2135
▁sind	-11.2141
▁machinery	-11.2144
▁absorbed	-11.215
▁34	-11.2151
IA	-11.2154
▁tier	-11.2161
Enhancing	-11.2163
▁55	-11.2166
▁title	-11.2167
house	-11.2167
▁ceiling	-11.2171
▁reliability	-11.2174
▁propose	-11.2174
mar	-11.2175
▁Implementation	-11.2178
▁quantify	-11.2184
.14	-11.2187
▁auditors	-11.22
cha	-11.22
▁cheap	-11.22
iding	-11.221
▁qualified	-11.2213
▁Monthly	-11.2214
):	-11.2216
What	-11.2219
▁fulfilling	-11.2221
▁eventual	-11.2222
▁executive	-11.2222
▁Slide	-11.2229
cr	-11.2232
▁commit	-11.2233
▁proud	-11.2236
PA	-11.2237
▁tied	-11.2237
ran	-11.2238
ide	-11.2241
▁complaints	-11.2247
TF	-11.2251
▁exhibit	-11.2258
▁25%	-11.226
▁diligence	-11.2265
▁Consumption	-11.2265
▁varies	-11.2266
▁Bu	-11.2268
▁110	-11.2272
▁narrowing	-11.2275
▁consolidate	-11.2279
▁Agency	-11.2286
▁spike	-11.2286
▁valid	-11.2289
▁impair	-11.229
lan	-11.229
lf	-11.2295
▁Lagarde	-11.2296
▁methodologies	-11.2296
▁Fi	-11.2305
▁positioned	-11.2306
▁CEO	-11.2306
▁troubled	-11.2315
▁Infrastructure	-11.2315
▁Shri	-11.2322
▁80%	-11.2323
▁dilemma	-11.2327
▁investigation	-11.2327
▁inside	-11.233
DI	-11.2331
ischen	-11.2331
▁Ste	-11.2333
▁blockchain	-11.2337
▁aus	-11.2338
▁predictability	-11.2338
▁inappropriate	-11.2346
mu	-11.2347
▁recommend	-11.2355
▁contracted	-11.2363
▁sur	-11.2365
▁nonetheless	-11.2368
late	-11.237
RI	-11.2372
▁student	-11.2378
▁selection	-11.238
▁disinflationary	-11.2381
▁comprises	-11.2388
▁coronavirus	-11.2389
▁scientific	-11.2389
▁compensate	-11.2393
How	-11.2396
▁penetration	-11.24
▁calm	-11.24
▁worry	-11.2404
▁Austria	-11.2405
▁pr	-11.2408
▁sequence	-11.241
▁eurozone	-11.2415
amidst	-11.2417
▁criminal	-11.242
▁unlimited	-11.242
▁defend	-11.242
▁onto	-11.2426
ér	-11.2428
▁Continued	-11.2431
▁mu	-11.2432
▁captured	-11.2436
▁Trinidad	-11.2441
▁undesirable	-11.2442
iff	-11.2458
bn	-11.2461
▁inefficient	-11.2461
▁participant	-11.2462
▁convenience	-11.2462
▁Duisenberg	-11.2462
▁roadmap	-11.2462
▁merchants	-11.2464
ker	-11.2465
▁picking	-11.2466
▁underscores	-11.2478
▁upwards	-11.2486
▁assumes	-11.2486
▁schedule	-11.2487
▁GOVERNOR	-11.2493
▁7).	-11.2494
▁peaked	-11.2495
▁liquidation	-11.2495
▁allocate	-11.2497
▁reluctant	-11.2504
▁39	-11.251
▁College	-11.2514
▁campaign	-11.2515
▁Jr	-11.2523
nch	-11.2524
▁truth	-11.2525
▁everywhere	-11.2526
▁fastest	-11.2528
▁Estonia	-11.2531
▁suspect	-11.2535
▁route	-11.2536
▁Need	-11.2538
95	-11.254
▁Libor	-11.2546
ey	-11.2547
▁exceeds	-11.2551
▁roll	-11.2553
ligning	-11.2553
▁Lastly	-11.256
▁recognizing	-11.2567
▁commentators	-11.2568
▁chair	-11.257
pec	-11.2579
▁disappointing	-11.258
▁peg	-11.258
▁motivated	-11.258
▁85	-11.2586
▁Demand	-11.2588
▁deteriorate	-11.2592
▁suffering	-11.2594
▁catching	-11.2596
▁Administration	-11.2599
FSB	-11.2599
▁submitted	-11.2599
▁reactions	-11.2602
AB	-11.2604
▁Philip	-11.2606
▁Tobago	-11.261
entrepreneurship	-11.2611
ante	-11.2623
▁Cyprus	-11.2631
▁academia	-11.2631
▁imposing	-11.2631
▁Poland	-11.2632
▁discourage	-11.2635
▁MBS	-11.2635
▁1997,	-11.2638
▁Big	-11.2639
▁hour	-11.2639
▁Notwithstanding	-11.2641
▁commensurate	-11.2641
▁speculation	-11.2641
▁creative	-11.2642
▁treat	-11.2647
▁Jo	-11.265
▁connectivity	-11.2652
▁authors	-11.2652
▁Developing	-11.2658
▁Th	-11.2659
▁induced	-11.2662
tur	-11.2666
▁raw	-11.2668
▁officers	-11.2669
▁70%	-11.2669
▁withdraw	-11.2671
pr	-11.2673
▁outweigh	-11.2673
▁EZB	-11.2673
▁correlated	-11.2673
▁advisory	-11.2675
▁freely	-11.2679
▁article	-11.2681
▁register	-11.2683
▁Major	-11.2684
▁Sverige	-11.2684
ency	-11.2688
▁succeeded	-11.2692
▁demonstrates	-11.2695
▁Ghana	-11.2695
▁RESERVE	-11.2695
▁disasters	-11.2697
▁pi	-11.2699
hrung	-11.27
▁modelling	-11.2704
za	-11.2704
▁holistic	-11.2705
▁unclear	-11.2706
▁reading	-11.2706
▁acquisition	-11.2708
▁confirms	-11.272
plic	-11.2721
tim	-11.2724
▁novel	-11.273
sha	-11.2731
▁Promot	-11.2732
▁3.0	-11.2736
▁[6]	-11.2736
▁Prior	-11.2737
▁averaging	-11.2738
▁unbanked	-11.2738
▁cybersecurity	-11.2738
cor	-11.274
▁records	-11.2741
▁constrain	-11.2747
▁Take	-11.2748
▁voting	-11.2748
New	-11.2757
▁meantime	-11.2757
▁surprised	-11.2762
ale	-11.2763
▁400	-11.2763
▁Response	-11.277
▁sphere	-11.277
sse	-11.277
▁posing	-11.277
▁14.	-11.2776
▁themes	-11.2778
▁Banca	-11.2781
▁sensible	-11.2781
▁Gold	-11.2784
▁rents	-11.2787
▁undergoing	-11.2787
▁Call	-11.2791
▁smart	-11.2791
▁maturing	-11.2792
▁Certainly	-11.2794
▁(2013),	-11.2795
▁approaching	-11.2797
▁justify	-11.2797
ists	-11.2797
▁2.2	-11.2797
ID	-11.2798
▁suggestions	-11.2801
▁restraint	-11.2801
▁Summary	-11.2802
▁cooperate	-11.2803
▁0.6	-11.2804
▁referring	-11.2804
▁shortfall	-11.281
▁populations	-11.2814
▁analyze	-11.2817
▁fade	-11.282
EMU	-11.2823
▁comprising	-11.2824
▁remit	-11.2829
▁Cambridge	-11.283
media	-11.2831
▁dealt	-11.2833
ath	-11.2835
▁map	-11.2843
SP	-11.2845
▁securing	-11.2846
recapitalisation	-11.2846
▁unstable	-11.2846
▁suddenly	-11.2851
▁Welcome	-11.2852
▁dividends	-11.2854
▁conscious	-11.2857
AI	-11.2857
policy	-11.2859
▁shaped	-11.2863
▁box	-11.2867
▁Fortunately	-11.2867
▁crash	-11.2868
▁confront	-11.2873
▁Thanks	-11.2876
des	-11.2879
lecommunications	-11.288
▁Nations	-11.2886
▁regulating	-11.2887
▁homeowners	-11.2889
▁regain	-11.2895
▁teams	-11.2895
▁devoted	-11.2896
▁impediments	-11.2896
lle	-11.2899
▁arrears	-11.29
▁critically	-11.2903
▁weighing	-11.2906
system	-11.2907
AN	-11.2908
▁entitled	-11.2911
▁36	-11.2912
AS	-11.2914
▁2024,	-11.2915
▁JGB	-11.2916
investment	-11.2917
▁Tokyo	-11.2922
▁Fe	-11.2923
▁resist	-11.2925
ctor	-11.2925
▁impairment	-11.2928
▁foreclosures	-11.2931
operative	-11.2932
▁secular	-11.2933
▁precautionary	-11.2933
▁(2013)	-11.294
▁convincing	-11.2944
.15	-11.2947
▁eliminated	-11.2947
▁restored	-11.295
▁Institutional	-11.2954
▁Focus	-11.2955
▁accepting	-11.2962
▁forefront	-11.2966
▁problematic	-11.2967
▁remittance	-11.2971
▁Sound	-11.2975
▁voice	-11.2976
▁(2004)	-11.2977
▁Avenue	-11.2977
▁societal	-11.2977
▁moderating	-11.2977
inter	-11.2979
▁41	-11.2981
under	-11.2982
▁gets	-11.2983
▁marketplace	-11.2988
tern	-11.2991
cal	-11.2991
▁Increasing	-11.2992
▁strain	-11.2993
▁challenged	-11.2995
▁tackling	-11.2999
▁gilt	-11.2999
▁aggressively	-11.3
▁Maintaining	-11.3003
▁harness	-11.3005
▁taught	-11.301
▁pain	-11.301
▁stopped	-11.301
▁block	-11.3011
IF	-11.3019
put	-11.3022
▁administered	-11.3023
employment	-11.3029
▁stream	-11.3029
cy	-11.3033
▁rental	-11.3035
▁attitudes	-11.3037
▁implication	-11.3038
sson	-11.304
rie	-11.304
48	-11.3043
▁complicate	-11.3047
▁05	-11.3048
▁switch	-11.3049
tter	-11.3052
▁collected	-11.3057
▁lesser	-11.306
▁Du	-11.3065
▁similarly	-11.3065
▁suited	-11.3066
CR	-11.3071
Is	-11.3073
▁leg	-11.3076
▁standardized	-11.3081
ux	-11.3082
ED	-11.3084
▁Argentina	-11.3088
▁exogenous	-11.3088
▁surprises	-11.3088
37	-11.3089
▁prone	-11.3093
PO	-11.3104
▁threatened	-11.3105
▁taxpayer	-11.3106
▁James	-11.311
▁examiners	-11.3111
▁1.3	-11.3118
▁1.7	-11.3118
▁06	-11.3122
▁NBS	-11.3123
▁supplement	-11.3131
ita	-11.3134
ties	-11.3135
ara	-11.3137
cra	-11.3137
▁minority	-11.3144
▁celebrate	-11.3148
▁standardised	-11.3149
▁Rising	-11.3151
rat	-11.3153
▁affairs	-11.3155
551	-11.316
▁damaging	-11.3166
▁Limited	-11.317
▁intensify	-11.3172
CO	-11.3174
effective	-11.3175
▁Medium	-11.3177
▁zur	-11.3178
▁comfortable	-11.3179
▁4.5	-11.318
▁tradable	-11.3181
regulation	-11.3183
ERAL	-11.3188
mente	-11.319
▁Bi	-11.3192
▁Ministers	-11.3195
▁narrowed	-11.3198
bor	-11.3199
▁qu	-11.3204
▁She	-11.321
▁Coeuré	-11.3211
▁communicating	-11.3211
▁virus	-11.3211
▁sea	-11.3222
▁discovery	-11.3224
sur	-11.3226
▁prop	-11.3226
▁turnaround	-11.3234
▁expert	-11.3236
▁Wi	-11.3239
trade	-11.3241
▁client	-11.3242
▁Economists	-11.3243
▁Theory	-11.3244
▁disparities	-11.3245
▁eliminating	-11.3245
dent	-11.325
▁embarked	-11.3251
▁crime	-11.3253
▁Charles	-11.3256
reg	-11.3261
fo	-11.3265
▁recommendation	-11.3266
▁Obviously	-11.3267
▁SYSTEM	-11.3267
▁synergies	-11.3268
▁systematically	-11.3268
▁interval	-11.3268
▁talked	-11.3269
press	-11.3269
▁underestimated	-11.3272
▁Customer	-11.3272
fall	-11.3276
▁devaluation	-11.3278
▁als	-11.3279
▁Advisory	-11.3279
▁Due	-11.328
▁earthquake	-11.329
▁thrive	-11.329
▁deciding	-11.329
▁definitely	-11.3292
▁Purchase	-11.3301
▁ESG	-11.3302
▁ta	-11.3308
▁machine	-11.331
cyclicality	-11.3311
▁underserved	-11.3313
▁(2012),	-11.3315
▁merger	-11.3323
▁Wall	-11.3324
era	-11.3327
▁younger	-11.3332
▁References	-11.3332
▁invasion	-11.3335
▁procyclicality	-11.3337
▁Improving	-11.334
▁restrict	-11.3341
▁sizable	-11.3347
▁Advanced	-11.3347
64	-11.3352
▁Shanghai	-11.3358
▁democracy	-11.3358
▁industrialised	-11.3362
▁successive	-11.3368
▁Common	-11.337
▁experiment	-11.337
▁announce	-11.3373
▁BC	-11.3374
▁originate	-11.3375
▁hamper	-11.3377
▁Martin	-11.3381
▁derive	-11.3383
▁Times	-11.3383
▁tap	-11.3387
▁onwards	-11.3394
▁adults	-11.3394
▁variations	-11.3397
▁consist	-11.3398
▁Panel	-11.3405
▁1989	-11.3405
su	-11.3406
▁Tax	-11.3406
chieving	-11.3407
▁undermining	-11.3407
▁priced	-11.3409
Using	-11.3412
▁fronts	-11.3414
▁auction	-11.3415
▁error	-11.3415
▁display	-11.3416
It	-11.3416
▁behave	-11.3417
34	-11.3421
▁Globalisation	-11.3425
[	-11.3425
▁0.8	-11.3426
iti	-11.3426
For	-11.3426
stability	-11.3427
▁undermined	-11.3434
ido	-11.3439
▁stepped	-11.3441
high	-11.3442
▁symmetric	-11.3448
▁Francisco	-11.345
An	-11.3455
bra	-11.3457
▁(2012)	-11.346
▁letter	-11.346
BOARD	-11.3462
▁commission	-11.3462
▁(2018)	-11.347
▁Savings	-11.3474
commerce	-11.3475
▁packages	-11.3484
▁Court	-11.3485
▁BOJ	-11.3497
▁Louis	-11.3497
▁Authorities	-11.3497
▁fi	-11.3499
▁adhere	-11.3501
▁invite	-11.3502
▁corridor	-11.3508
▁hindsight	-11.3508
▁licensing	-11.3508
▁EC	-11.351
▁Institution	-11.3516
▁black	-11.352
▁puzzle	-11.352
▁Daniel	-11.352
▁outsourcing	-11.3521
▁gathered	-11.3522
▁8).	-11.3523
▁missing	-11.3528
▁dé	-11.3532
▁unknown	-11.3534
place	-11.354
▁che	-11.3543
▁Sha	-11.3545
▁é	-11.3546
▁appointed	-11.3547
chen	-11.3554
▁placing	-11.3555
NE	-11.3555
▁einer	-11.3559
kt	-11.356
▁Transition	-11.3566
▁supranational	-11.3566
▁Latvia	-11.3566
▁supposed	-11.3569
▁Ten	-11.357
▁fl	-11.3574
▁norm	-11.3575
▁differing	-11.3577
▁simpler	-11.3577
▁likewise	-11.358
ral	-11.3585
rea	-11.3587
je	-11.359
▁Richard	-11.359
NB	-11.3595
▁FY	-11.3596
▁remainder	-11.3599
▁th	-11.36
▁destruction	-11.3601
▁Prof	-11.3604
sten	-11.361
▁incurred	-11.3613
LR	-11.3616
▁confined	-11.3616
-7	-11.3619
non	-11.3623
▁Mass	-11.3624
▁Turkish	-11.3625
▁conjunction	-11.3625
▁intermediary	-11.3625
▁foreseeable	-11.3627
▁Anti	-11.3627
▁Yes	-11.3629
▁2050	-11.3631
▁cited	-11.3637
Conclusion	-11.3639
IM	-11.3644
▁[7]	-11.3645
▁functional	-11.3646
▁ensuing	-11.3648
▁immigration	-11.3648
▁vacancies	-11.3648
▁medical	-11.3648
▁ce	-11.3649
▁envisage	-11.3653
▁advised	-11.3654
▁shrink	-11.3656
ski	-11.3661
▁ré	-11.3668
▁apparently	-11.3668
▁Honourable	-11.3672
▁treasury	-11.3672
▁Microfinance	-11.3672
▁reiterate	-11.3677
▁attend	-11.368
▁feeling	-11.3683
lli	-11.3683
▁cornerstone	-11.3684
▁footprint	-11.3684
▁01	-11.3684
▁colleague	-11.3685
▁concerted	-11.3687
▁protectionist	-11.369
▁Globalization	-11.3691
▁broker	-11.3693
▁air	-11.3693
▁disrupted	-11.3695
-15	-11.3695
▁Bulgaria	-11.3702
▁Er	-11.3705
▁38	-11.3706
▁Emphasize	-11.3707
▁grant	-11.3707
▁Approach	-11.3707
▁Woodford	-11.3707
▁inception	-11.3707
▁Black	-11.3707
▁Hu	-11.3711
▁extract	-11.3719
▁struggling	-11.3719
▁compar	-11.3721
▁3-	-11.3722
▁agent	-11.3725
▁inherently	-11.3726
encia	-11.3726
▁float	-11.373
▁centuries	-11.3731
▁universities	-11.3731
▁Section	-11.3732
▁recoveries	-11.3733
▁originated	-11.3739
▁Her	-11.3739
▁assured	-11.374
Con	-11.3741
▁Confidence	-11.3755
▁FPC	-11.3756
▁Level	-11.3757
▁Exports	-11.3757
SSM	-11.3758
▁GFC	-11.3764
FC	-11.3766
▁analysing	-11.3767
▁Im	-11.3767
▁Ki	-11.3768
ls	-11.3775
▁supervising	-11.3779
▁(2010),	-11.3781
▁averages	-11.3781
▁Account	-11.3782
▁divided	-11.3783
▁bright	-11.3788
▁1:	-11.3789
▁vicious	-11.3791
▁dividend	-11.3794
▁CDS	-11.3801
▁personnel	-11.3803
vol	-11.3808
coming	-11.3812
▁enhancements	-11.3813
▁patient	-11.3815
▁presumably	-11.3815
▁barrel	-11.3815
▁depressed	-11.382
▁tr	-11.3823
46	-11.383
skilled	-11.3835
▁turns	-11.3837
undue	-11.3838
▁Dollar	-11.3839
▁isolation	-11.3839
▁1988	-11.3839
▁strictly	-11.3842
▁sent	-11.3844
▁correctly	-11.3848
▁Day	-11.385
▁dependency	-11.3851
▁ho	-11.3857
▁reminder	-11.3858
▁fostered	-11.3862
▁Fifth	-11.3863
▁Science	-11.3863
▁numerical	-11.3863
tig	-11.3866
▁disclose	-11.3868
▁cohesion	-11.3875
carbon	-11.3876
▁sole	-11.3876
▁contacts	-11.3877
▁whenever	-11.3879
iert	-11.3881
car	-11.3883
▁differs	-11.3885
ME	-11.3887
IP	-11.3889
▁mainstream	-11.3889
▁pour	-11.3894
▁construct	-11.3897
▁(2002)	-11.3899
▁urgency	-11.3899
▁Company	-11.3899
▁Lane	-11.3903
▁leaves	-11.3906
▁(2009),	-11.3907
▁organisational	-11.3908
▁attached	-11.391
▁recourse	-11.3911
▁Unit	-11.3914
▁associations	-11.3914
▁attack	-11.3915
▁(2006)	-11.3918
▁win	-11.3922
▁birth	-11.3922
▁span	-11.3925
uff	-11.3929
▁consume	-11.3932
▁4.0	-11.3933
▁Mi	-11.3936
▁Reflect	-11.3942
▁br	-11.3944
▁AIG	-11.3944
▁***	-11.3946
▁Stage	-11.3952
▁breach	-11.3955
▁believes	-11.3959
▁earned	-11.3963
ani	-11.3966
▁origin	-11.3969
▁didn	-11.397
▁steering	-11.3971
▁cons	-11.3975
ali	-11.3975
▁granting	-11.3975
▁combine	-11.3976
class	-11.3976
▁diminish	-11.3978
digit	-11.3979
core	-11.3984
can	-11.3985
▁automated	-11.3988
▁ordinary	-11.3996
▁solvent	-11.3996
publications	-11.4001
▁pull	-11.4007
▁repos	-11.4014
▁crucially	-11.4015
ush	-11.4018
▁("	-11.4019
▁exclusion	-11.402
▁BCE	-11.4021
▁Enhanced	-11.4022
matic	-11.4022
▁indebted	-11.4029
▁dear	-11.4029
▁phased	-11.4032
▁Si	-11.4037
▁refinance	-11.4044
▁elected	-11.4045
▁Audit	-11.4045
ige	-11.4057
dr	-11.4062
▁determinant	-11.4063
▁none	-11.4063
.16	-11.4064
ée	-11.4064
▁Pay	-11.4066
▁Quantitative	-11.4069
▁Lithuania	-11.4069
▁inefficiencies	-11.4069
▁subsidiary	-11.4069
▁weighed	-11.4079
▁perfectly	-11.4081
▁tri	-11.4082
▁cater	-11.4082
tan	-11.4089
▁Independence	-11.4093
▁image	-11.4097
▁Aus	-11.4098
zero	-11.4105
▁warm	-11.4106
▁undergone	-11.4106
▁attainment	-11.4108
▁Others	-11.4111
▁frame	-11.4114
open	-11.4115
▁pickup	-11.4115
65	-11.4117
▁commerce	-11.4117
national	-11.4117
▁trans	-11.4122
▁communicated	-11.4123
MF	-11.4123
▁moreover	-11.4124
▁symbol	-11.4124
▁issuer	-11.4125
▁disrupt	-11.4126
▁resiliency	-11.4131
▁pointing	-11.4133
▁dominate	-11.4136
▁tension	-11.4139
news	-11.4142
▁keynote	-11.4143
▁monetaria	-11.4143
▁Volcker	-11.4143
nz	-11.4145
▁Reports	-11.4145
▁train	-11.4147
▁safely	-11.4148
ierung	-11.4156
person	-11.4156
▁auctions	-11.4157
▁ent	-11.4157
aries	-11.4164
▁1.6	-11.4168
ON	-11.4174
▁Conditions	-11.4176
▁Empirical	-11.418
cep	-11.4188
Bo	-11.4189
af	-11.4192
mann	-11.4193
▁founded	-11.4194
▁fairness	-11.4198
▁understandable	-11.42
▁CD	-11.4201
NG	-11.4203
79	-11.4205
▁wrote	-11.4205
▁ought	-11.4205
▁Bear	-11.421
▁Similar	-11.4211
▁opaque	-11.4218
▁flight	-11.4218
66	-11.4221
▁Concerns	-11.4225
▁repeated	-11.4225
stein	-11.4229
▁continually	-11.4232
ged	-11.4234
▁graduates	-11.4235
▁struggle	-11.4236
▁formally	-11.4237
▁contributor	-11.4238
▁2.1	-11.4241
AL	-11.4243
ein	-11.4246
bound	-11.4247
sum	-11.4248
ute	-11.4252
▁Const	-11.4255
▁glad	-11.4255
No	-11.4258
▁Accounting	-11.4259
▁0.5%	-11.4261
▁thresholds	-11.4266
▁irrespective	-11.4268
▁(2011),	-11.4268
▁town	-11.4268
▁reputational	-11.4271
▁preparedness	-11.4273
▁deployed	-11.4276
▁une	-11.4279
▁lagging	-11.4281
▁attach	-11.4282
LC	-11.4287
▁reasoning	-11.429
▁1998.	-11.4292
▁idiosyncratic	-11.4293
▁Until	-11.4293
39	-11.4295
2023	-11.4296
▁ATMs	-11.4299
▁reveal	-11.4299
regional	-11.43
▁merits	-11.4307
list	-11.4311
▁manoeuvre	-11.4318
▁shield	-11.4318
▁haben	-11.4318
▁passing	-11.4319
▁demographics	-11.4325
▁j	-11.4328
▁Cyber	-11.433
atory	-11.4334
▁faith	-11.4334
lement	-11.4335
▁illustration	-11.4343
▁CBDCs	-11.4349
ité	-11.4349
▁extensively	-11.435
▁1.4	-11.435
▁MPR	-11.435
▁fruit	-11.435
▁rare	-11.435
▁Cor	-11.435
▁Dec	-11.4351
▁turbulent	-11.4356
kon	-11.4356
data	-11.4357
▁Back	-11.4357
lasting	-11.4361
via	-11.4361
▁accord	-11.4366
▁Adjustment	-11.4368
▁obtaining	-11.4369
▁Comprehensive	-11.4373
ura	-11.4373
▁strongest	-11.4373
▁compounded	-11.4374
▁Card	-11.4377
▁receipts	-11.4379
▁footing	-11.4379
▁phenomena	-11.438
▁pragmatic	-11.4381
▁Easing	-11.4381
▁procyclical	-11.4381
▁trap	-11.4382
▁bust	-11.4383
▁unfortunately	-11.4384
lie	-11.4385
May	-11.4386
▁calculate	-11.4387
ef	-11.4388
card	-11.4388
▁foreseen	-11.4388
▁heading	-11.4389
▁dans	-11.439
▁Rules	-11.4391
▁someone	-11.4393
gel	-11.4396
▁digit	-11.4402
cre	-11.4404
bust	-11.4406
▁Free	-11.4413
▁Value	-11.4415
▁(2010)	-11.4416
troductory	-11.4421
▁lessen	-11.4421
ato	-11.4425
COVID	-11.4426
▁geographic	-11.4429
▁Beno	-11.4429
▁equation	-11.4432
▁interplay	-11.4432
▁downwards	-11.4432
▁viewpoint	-11.4437
cycle	-11.4439
▁door	-11.444
▁Atlantic	-11.4444
▁statute	-11.4444
mmer	-11.4445
europa	-11.4453
▁overhang	-11.4455
▁Every	-11.4457
▁Conversely	-11.4457
▁conviction	-11.4457
▁Oil	-11.4463
▁formulate	-11.4465
5,000	-11.4465
55	-11.4465
▁Am	-11.4466
just	-11.4468
▁politics	-11.447
▁haircuts	-11.4471
Ma	-11.4471
▁mindset	-11.4473
▁underline	-11.4474
LA	-11.4477
▁materialize	-11.4478
focused	-11.448
▁Christian	-11.4483
▁Projections	-11.4483
▁Princeton	-11.4488
▁characteristic	-11.4494
▁CMU	-11.4501
▁(2005)	-11.4502
▁Fa	-11.4502
▁44	-11.4509
▁enacted	-11.4512
▁linking	-11.4516
rm	-11.4516
ble	-11.4518
cker	-11.4519
▁piece	-11.4519
▁harmonization	-11.4521
▁vice	-11.4525
target	-11.4526
▁suppliers	-11.4527
▁engineering	-11.453
▁implying	-11.453
▁consult	-11.4531
▁Sydney	-11.4534
▁paramount	-11.4534
▁restrain	-11.4534
▁remarkably	-11.4534
▁Hon	-11.4541
“	-11.4542
▁globalised	-11.4542
▁0.7	-11.4542
▁presenting	-11.4544
lock	-11.4544
ero	-11.4549
cul	-11.4551
▁forcefully	-11.4554
▁assign	-11.4554
linked	-11.4558
▁Different	-11.4559
▁overhaul	-11.456
xi	-11.456
▁Question	-11.4561
44	-11.4562
▁entrepreneurial	-11.4573
▁capitalization	-11.4578
anchored	-11.4582
▁matching	-11.4583
08	-11.4584
▁imperfect	-11.4585
▁hurt	-11.4586
▁3.2	-11.4586
▁noticeably	-11.4586
33	-11.4587
▁stark	-11.4587
▁CRE	-11.4589
ere	-11.4589
asset	-11.459
▁shed	-11.4598
▁Macedonia	-11.4599
▁decentralised	-11.4599
▁alia	-11.46
▁specialized	-11.4602
▁diminishing	-11.4602
▁originally	-11.4603
hin	-11.4603
defined	-11.4604
▁sophistication	-11.4611
▁contractual	-11.4612
▁motor	-11.4612
▁drift	-11.4624
▁trough	-11.4625
▁muted	-11.4625
▁exclude	-11.463
building	-11.4633
well	-11.4634
▁rigid	-11.4636
▁Collaboration	-11.4637
▁renewable	-11.4638
▁Right	-11.4641
▁Share	-11.4647
-3	-11.4649
▁Transactions	-11.465
▁Slovenia	-11.465
▁econometric	-11.4659
▁minds	-11.466
▁warnings	-11.4661
▁inconsistent	-11.4661
▁1)	-11.4662
▁widen	-11.4673
▁JGBs	-11.4675
▁multinational	-11.4677
▁Occasional	-11.4681
FE	-11.4683
udi	-11.4684
llen	-11.4685
▁(2007)	-11.4687
▁advent	-11.469
▁Output	-11.469
▁producer	-11.469
stat	-11.4692
▁mar	-11.4694
▁impede	-11.4696
orient	-11.4698
book	-11.4698
▁ethics	-11.4703
▁Early	-11.4703
▁combin	-11.4704
stra	-11.4709
▁Toward	-11.4713
▁lagged	-11.4716
78	-11.4721
▁liberal	-11.4724
▁sta	-11.4732
▁centralised	-11.4733
ily	-11.4739
▁judgments	-11.474
▁chief	-11.4742
▁politically	-11.4748
▁excellence	-11.4755
▁proportionate	-11.4757
▁sessions	-11.4759
ake	-11.4762
ois	-11.4763
▁-10	-11.4765
▁bursting	-11.4765
▁12-	-11.4767
▁Belgium	-11.4768
▁concluding	-11.4768
▁narrative	-11.4768
▁compelling	-11.4768
▁stabilized	-11.4769
rum	-11.4774
▁Finanz	-11.4779
▁allotment	-11.4781
▁absorption	-11.4782
▁distributional	-11.4782
▁detrimental	-11.4784
▁App	-11.4784
▁honoured	-11.4784
▁Important	-11.4789
▁lean	-11.479
from	-11.4792
▁Enterprises	-11.4793
files	-11.4793
▁creditor	-11.4794
▁efficacy	-11.4795
▁reminded	-11.4797
▁intends	-11.4798
▁extends	-11.4801
absorbing	-11.4807
▁Botswana	-11.4808
▁referendum	-11.4808
Italia	-11.4808
▁Five	-11.4809
▁summit	-11.4809
▁classic	-11.4813
▁midst	-11.4815
▁au	-11.4815
normal	-11.4818
▁LCR	-11.4818
▁(2015).	-11.482
▁format	-11.482
▁Moderation	-11.4821
▁Workshop	-11.4821
▁fuelled	-11.4822
▁summarise	-11.4827
▁immense	-11.4828
ische	-11.4829
▁amounting	-11.4832
▁erosion	-11.4834
loss	-11.4839
▁eroded	-11.484
61	-11.4841
▁deliberate	-11.4841
▁exciting	-11.4848
▁rec	-11.4851
▁ch	-11.4851
▁Strategic	-11.4852
kin	-11.4853
96	-11.4856
▁Put	-11.4858
ees	-11.4859
▁height	-11.486
▁asymmetry	-11.4861
▁entrusted	-11.4864
▁prevailed	-11.4864
firm	-11.4866
▁blocks	-11.4867
gress	-11.4867
▁forums	-11.4877
▁bargaining	-11.4877
▁posted	-11.4879
▁stabilised	-11.488
▁farm	-11.4882
▁revisit	-11.4887
▁poorly	-11.489
▁calling	-11.4894
▁[8]	-11.4895
▁stems	-11.4898
0.0	-11.4899
cher	-11.4901
▁centers	-11.4903
added	-11.4911
38	-11.4912
▁individually	-11.4914
▁capitalisation	-11.4917
▁pl	-11.4917
dem	-11.4918
▁Thirdly	-11.4919
▁Berlin	-11.4919
▁debated	-11.4919
▁Country	-11.4922
tant	-11.4924
▁stick	-11.4925
▁university	-11.4928
▁-5	-11.4932
▁strengthens	-11.4933
▁concentrations	-11.4939
▁Cha	-11.4939
but	-11.494
▁crore	-11.4941
▁Rule	-11.4947
ough	-11.4948
▁formulated	-11.4948
▁lacking	-11.4949
▁translated	-11.4955
ology	-11.4956
▁expression	-11.4956
▁Icelandic	-11.4956
▁English	-11.496
▁premature	-11.4961
▁blue	-11.4968
▁1.9	-11.4969
▁ineffective	-11.4971
▁borrowed	-11.4972
▁impulses	-11.4977
▁meets	-11.4979
▁Rome	-11.4979
▁solidarity	-11.4981
▁(1999)	-11.4981
pping	-11.4981
▁deals	-11.4983
▁underscored	-11.4988
▁Mc	-11.4989
December	-11.4992
▁criterion	-11.4995
▁unpredictable	-11.4995
▁1.8	-11.4996
▁disappear	-11.4996
▁retained	-11.4997
▁Provid	-11.4997
▁rests	-11.4998
mark	-11.5003
-2008	-11.5005
▁fa	-11.5005
▁evaluated	-11.5005
▁coordinating	-11.5008
▁realities	-11.5009
imp	-11.501
▁commend	-11.5021
▁thrift	-11.5022
▁object	-11.5022
▁surged	-11.5023
▁settings	-11.5023
▁pays	-11.5033
▁Danmark	-11.5035
sale	-11.5036
til	-11.5036
▁documentation	-11.5038
▁marking	-11.5041
▁1987	-11.505
▁examinations	-11.5053
loc	-11.5053
▁shrinking	-11.5053
▁analytics	-11.5053
CD	-11.5054
▁preserved	-11.5056
uring	-11.5058
▁Smith	-11.5062
▁interdependence	-11.5063
▁unfair	-11.5063
▁hitting	-11.5065
▁Human	-11.5076
▁correspondent	-11.5077
▁connect	-11.5078
▁interim	-11.5079
▁impulse	-11.508
▁walk	-11.509
▁classification	-11.509
lay	-11.5091
▁matched	-11.5093
tz	-11.5095
polar	-11.5096
▁04	-11.5099
▁suit	-11.5099
▁absorbing	-11.5108
lib	-11.5111
▁welcomed	-11.5118
▁periodic	-11.5122
▁Figures	-11.5123
▁distribute	-11.5126
▁expose	-11.5126
▁existed	-11.5126
▁Port	-11.5135
▁altered	-11.5137
real	-11.5138
▁9).	-11.5142
▁ser	-11.5142
▁pertinent	-11.5144
▁Carney	-11.5144
▁automation	-11.5144
▁harmful	-11.5145
▁signalling	-11.5146
▁containment	-11.5148
central	-11.5156
▁42	-11.516
▁adds	-11.5165
▁2.3	-11.5167
▁worsened	-11.5167
gli	-11.5169
depth	-11.517
▁struck	-11.5171
▁Technical	-11.5171
▁escape	-11.5171
IV	-11.5181
outs	-11.5183
▁Product	-11.5184
▁buoyant	-11.5185
▁Powell	-11.5185
57	-11.5194
▁combating	-11.5203
tract	-11.5205
DR	-11.5207
-5	-11.5208
PR	-11.5208
▁Historically	-11.521
▁2)	-11.5211
April	-11.5211
energy	-11.5211
▁roots	-11.5218
▁backward	-11.5219
▁hire	-11.5228
▁triggering	-11.523
▁utility	-11.524
kan	-11.5243
fed	-11.5244
▁underscore	-11.5253
▁pound	-11.5254
▁submit	-11.5254
?",	-11.5256
▁Head	-11.5259
▁vigorous	-11.5261
▁noteworthy	-11.5268
▁trusted	-11.5268
growth	-11.5281
tune	-11.5283
ically	-11.5294
▁Continuous	-11.5295
▁diffusion	-11.5295
▁entrants	-11.5295
▁edition	-11.5295
▁00	-11.5298
▁parity	-11.5299
▁female	-11.5309
▁pipeline	-11.5309
▁abuse	-11.5312
▁complexities	-11.5316
Money	-11.5323
▁defense	-11.5323
▁founding	-11.5323
▁interview	-11.5324
rei	-11.5327
▁como	-11.5331
global	-11.5335
bb	-11.5337
▁Keynes	-11.5337
▁philosophy	-11.5337
load	-11.5339
▁Conclusions	-11.5341
▁Forecasts	-11.5347
counter	-11.5349
ben	-11.5349
▁topical	-11.535
▁listen	-11.535
▁discusses	-11.5358
pillar	-11.5365
▁waiting	-11.5365
correct	-11.5365
▁reacted	-11.5366
▁departments	-11.5367
▁Fall	-11.5369
▁connections	-11.5371
▁UN	-11.5371
▁says	-11.5372
▁Das	-11.5374
road	-11.5376
▁advancement	-11.5376
▁simplified	-11.5379
▁consequent	-11.5386
▁accomplished	-11.5389
▁pu	-11.5393
private	-11.5393
▁honest	-11.5393
▁satisfied	-11.5394
▁begins	-11.5394
▁buildup	-11.5395
▁fulfilled	-11.5397
cial	-11.5397
▁Mer	-11.5397
residents	-11.5399
▁participated	-11.5401
▁definitions	-11.5403
oli	-11.5405
▁minor	-11.5405
▁false	-11.5407
▁possess	-11.5407
▁white	-11.5407
▁Starting	-11.5412
▁chose	-11.5417
▁comparatively	-11.5418
ncio	-11.5418
▁Ob	-11.5419
▁wie	-11.5423
▁intent	-11.5427
▁Mac	-11.5428
▁amended	-11.5431
▁super	-11.5431
▁Gr	-11.5433
▁Requirements	-11.5441
sproportionately	-11.5445
▁Weak	-11.5447
▁Cycle	-11.5449
▁nexus	-11.5449
▁sizes	-11.5449
BM	-11.5449
▁mistake	-11.5453
▁aged	-11.5453
https	-11.5453
established	-11.5456
ash	-11.5459
▁130	-11.5461
▁personally	-11.5462
▁unity	-11.5463
▁computing	-11.5463
▁Kr	-11.5468
▁Sp	-11.5471
CH	-11.5478
▁augment	-11.548
About	-11.5481
▁analysed	-11.549
tier	-11.5491
85	-11.5492
▁maximize	-11.5497
rich	-11.5497
47	-11.5497
bin	-11.5502
▁preventive	-11.5504
▁wants	-11.5506
▁dissemination	-11.5506
▁Legal	-11.5506
▁(2000)	-11.5506
▁enrich	-11.5507
▁race	-11.5509
life	-11.5526
▁render	-11.553
▁2.4	-11.5531
▁Wa	-11.5531
nic	-11.5534
▁George	-11.5534
▁healthcare	-11.5535
aff	-11.554
▁Being	-11.5541
ifying	-11.5544
tle	-11.5547
▁kr	-11.5548
▁Nominal	-11.5548
▁misleading	-11.5548
▁Women	-11.5549
▁Better	-11.5549
▁comparisons	-11.555
▁attractiveness	-11.5552
▁Use	-11.5553
cen	-11.5561
▁Official	-11.5563
▁Professional	-11.5563
post	-11.5569
▁resume	-11.557
dated	-11.557
tel	-11.5572
▁predecessor	-11.5577
▁Bra	-11.558
.17	-11.5581
▁forceful	-11.5588
▁Europa	-11.559
▁superior	-11.5591
pack	-11.5592
▁twin	-11.5592
▁250	-11.5592
AT	-11.5605
▁lifting	-11.5605
business	-11.5607
▁rein	-11.561
pose	-11.5612
▁-3	-11.5617
enhancing	-11.5621
-2000	-11.5623
▁9%	-11.5629
▁Wirtschafts	-11.5632
▁Mon	-11.5633
lit	-11.5633
▁arguably	-11.5634
▁Macroeconomics	-11.5643
▁borrowings	-11.5645
▁Filipinos	-11.5646
▁Wealth	-11.5649
October	-11.565
nce	-11.565
exporting	-11.565
▁unregulated	-11.565
▁Broad	-11.5659
▁association	-11.5659
▁van	-11.566
ecb	-11.5663
-11	-11.5663
▁Moving	-11.5663
flow	-11.5668
▁reforming	-11.5674
position	-11.5678
▁watching	-11.5678
CT	-11.5678
fledged	-11.5681
▁logic	-11.5684
▁wird	-11.5688
▁Structure	-11.5692
▁slope	-11.5692
▁insist	-11.5692
▁fallout	-11.5693
▁SA	-11.5694
▁parents	-11.5698
▁restructure	-11.57
▁Gra	-11.5701
▁island	-11.5702
rse	-11.5702
▁quantities	-11.5706
▁Macao	-11.5706
▁1997.	-11.5716
▁proof	-11.5718
▁accompanying	-11.5718
▁accumulate	-11.5728
▁origins	-11.5729
▁belong	-11.5732
▁Keynesian	-11.5732
▁appeal	-11.5734
▁sin	-11.5735
▁bought	-11.5735
▁Eurogroup	-11.5736
▁rarely	-11.5743
▁Spring	-11.5745
▁Laundering	-11.575
▁devastating	-11.575
▁equitable	-11.575
uri	-11.575
default	-11.5751
▁writing	-11.5752
▁web	-11.5757
▁grade	-11.5758
▁explored	-11.5761
▁Assets	-11.5764
▁shop	-11.5764
▁standpoint	-11.5765
▁finish	-11.5767
bre	-11.577
▁versa	-11.577
CF	-11.5772
▁promises	-11.5773
▁1.1	-11.5775
▁(2011)	-11.5778
▁acknowledges	-11.578
▁Master	-11.5781
▁140	-11.5782
▁cheques	-11.579
▁600	-11.579
▁TIPS	-11.5793
▁leap	-11.5794
capital	-11.5795
▁[9]	-11.58
▁Targeting	-11.5802
▁IFRS	-11.5804
rating	-11.5806
insurance	-11.5807
▁licence	-11.5808
yn	-11.5814
AF	-11.5816
▁43	-11.5816
▁merit	-11.5818
▁Sir	-11.582
developed	-11.5821
pay	-11.5821
▁cleared	-11.5822
▁besides	-11.5826
aus	-11.5832
▁End	-11.5834
▁(2019)	-11.5837
▁plenty	-11.5837
rg	-11.5838
▁3.5%	-11.5838
board	-11.584
▁wise	-11.5845
▁perceive	-11.5845
▁Nigeria	-11.5847
▁rebuild	-11.5851
▁Statistical	-11.5852
▁Organisation	-11.5852
▁theories	-11.5853
tar	-11.5853
▁conditionality	-11.5855
▁bei	-11.5857
▁born	-11.586
▁shareholder	-11.5861
▁unexpectedly	-11.5862
▁estimation	-11.5862
ao	-11.5864
▁speaker	-11.5865
▁coal	-11.5868
▁unlock	-11.5869
▁custom	-11.5875
▁determines	-11.5877
▁modified	-11.5881
▁pe	-11.5882
▁Reporting	-11.5882
dollar	-11.5884
▁jump	-11.5885
▁evaluations	-11.5888
▁Land	-11.5888
SD	-11.5889
▁nonfinancial	-11.5894
▁(2007),	-11.5895
▁Leaders	-11.5896
augural	-11.5896
2016	-11.5903
▁90%	-11.5903
cel	-11.5905
▁Ru	-11.5908
▁orders	-11.591
▁valued	-11.591
other	-11.5911
▁reliant	-11.5911
▁prosperous	-11.5911
▁noticeable	-11.5913
▁totally	-11.5913
▁microeconomic	-11.5914
ranging	-11.5916
▁2025.	-11.5917
bility	-11.5917
▁OMTs	-11.5918
▁Yellen	-11.5926
▁accuracy	-11.5926
▁tandem	-11.5926
OC	-11.5929
zo	-11.5932
93	-11.5933
▁Ed	-11.5935
▁concludes	-11.5938
tribu	-11.5939
occupied	-11.594
▁temptation	-11.594
▁Launch	-11.594
▁monet	-11.5941
▁proceeding	-11.5943
▁broken	-11.5944
DB	-11.5945
▁manifest	-11.5947
▁colleges	-11.5948
▁thoroughly	-11.5954
▁chapter	-11.5955
▁council	-11.5955
▁Branch	-11.5955
▁Week	-11.5959
▁locally	-11.5965
DE	-11.5966
▁100%	-11.5969
▁breadth	-11.597
cc	-11.597
AD	-11.5971
▁hosting	-11.5972
▁Sep	-11.5974
▁Naturally	-11.5976
▁shortfalls	-11.598
▁reflections	-11.5981
▁pure	-11.5983
▁choosing	-11.5985
▁elimination	-11.5985
▁neighborhoods	-11.5986
rio	-11.5986
nnen	-11.5989
▁designated	-11.5989
ili	-11.5996
▁cast	-11.6
▁mirror	-11.6003
wal	-11.6004
▁02	-11.6005
rch	-11.6012
▁Examples	-11.6015
▁Rogoff	-11.6015
▁99	-11.6015
lier	-11.6016
stream	-11.6016
▁3.1	-11.6027
▁author	-11.6028
▁proceedings	-11.6031
▁listening	-11.6032
▁Je	-11.6032
▁convert	-11.6032
▁Shi	-11.6039
▁Various	-11.6045
▁rupee	-11.6059
▁Der	-11.606
▁haven	-11.6061
yield	-11.6063
▁wall	-11.6065
▁revise	-11.6068
▁mainland	-11.6068
▁Benjamin	-11.6074
▁Jamaica	-11.6074
▁compromising	-11.6074
▁slump	-11.6074
▁Trading	-11.6074
▁Coordination	-11.6076
▁CO	-11.608
▁ruled	-11.608
▁2:	-11.6082
▁sit	-11.6085
comm	-11.6087
ata	-11.6087
▁Portuguese	-11.6089
▁Stockholm	-11.6089
▁propensity	-11.6089
▁worried	-11.6089
▁substitution	-11.609
tuning	-11.609
▁dates	-11.6095
1.5	-11.6095
▁cars	-11.6101
dra	-11.6103
▁anticipation	-11.6105
▁nancial	-11.6105
▁origination	-11.6109
mini	-11.611
63	-11.6121
▁fluctuate	-11.6128
▁radical	-11.6128
▁collapsed	-11.6131
▁fails	-11.6133
▁Urban	-11.6135
▁stories	-11.6135
▁Brainard	-11.6135
nal	-11.6137
▁player	-11.6137
bel	-11.6138
iger	-11.6139
November	-11.6139
▁Four	-11.6139
downs	-11.6141
▁12%	-11.6144
▁dampened	-11.6145
▁injections	-11.6147
▁prohibit	-11.6149
▁ii	-11.6149
▁(2001)	-11.615
▁Electronic	-11.615
▁Instrument	-11.615
▁proportionality	-11.6151
▁empower	-11.6152
▁logical	-11.6156
kr	-11.6157
▁Has	-11.6158
ando	-11.6162
▁Christine	-11.6165
▁Disclosure	-11.6165
▁Oversight	-11.6165
▁Consistent	-11.6165
▁formulating	-11.6166
▁calendar	-11.6177
▁deserve	-11.6178
▁testimony	-11.618
▁Vision	-11.6181
ock	-11.6184
Federal	-11.6184
▁prompting	-11.6186
▁maintains	-11.619
Do	-11.6192
▁Hungary	-11.6195
▁drought	-11.6195
▁pieces	-11.6197
▁redistribution	-11.6198
hang	-11.6199
▁manager	-11.6201
▁lifted	-11.6202
emptive	-11.6202
▁debtors	-11.6205
▁divergences	-11.621
▁Boston	-11.621
▁NAIRU	-11.6217
▁socially	-11.6217
-4	-11.6218
▁Businesses	-11.6221
2017	-11.6224
▁closure	-11.6226
▁residual	-11.6226
▁Dynamics	-11.6226
ino	-11.6228
▁Along	-11.6228
▁Economist	-11.6228
32	-11.623
▁Sovereign	-11.6232
▁je	-11.6235
▁weekly	-11.6239
▁supplies	-11.6241
▁craft	-11.6241
▁interface	-11.6241
▁affordability	-11.6242
▁Notably	-11.6242
▁1985	-11.6243
etti	-11.6245
ano	-11.6247
▁facto	-11.6248
lic	-11.6249
▁comprise	-11.6252
▁cit	-11.6252
payment	-11.6255
▁Repo	-11.6258
▁relaxation	-11.626
▁reveals	-11.6261
▁Compliance	-11.6271
▁CBK	-11.6271
▁inhibit	-11.6271
▁Longer	-11.6272
▁Ke	-11.6274
▁MSME	-11.6275
productive	-11.6275
▁1.7%	-11.6275
▁argues	-11.6282
▁peripheral	-11.6287
ank	-11.6288
▁endorsed	-11.6289
▁port	-11.6289
van	-11.629
▁forming	-11.6291
▁simulations	-11.6293
▁erode	-11.6295
▁exemption	-11.6299
▁Update	-11.6302
▁accessibility	-11.6302
▁Qua	-11.6303
▁originating	-11.6303
▁(2016).	-11.6311
▁exclusive	-11.6311
CSD	-11.6311
TA	-11.6312
▁announcements	-11.6314
lived	-11.6314
▁ignored	-11.6315
ieren	-11.6316
▁Reducing	-11.6317
▁elderly	-11.6317
▁vein	-11.6318
▁98	-11.632
▁nationwide	-11.6321
▁licensed	-11.6322
▁Accounts	-11.6329
RR	-11.6329
▁Intelligence	-11.6333
▁Joseph	-11.6333
oy	-11.6333
▁deadline	-11.6333
pan	-11.634
▁54	-11.6343
76	-11.6343
▁witnessing	-11.6346
las	-11.6347
▁Mexican	-11.6348
▁arose	-11.6348
▁Life	-11.6349
59	-11.6349
▁smoothing	-11.635
▁relaxed	-11.6354
▁documented	-11.6357
umb	-11.6363
▁admit	-11.6363
▁Modern	-11.6364
▁violat	-11.6364
▁winter	-11.6365
public	-11.6368
finance	-11.6376
live	-11.6377
▁unduly	-11.6379
▁knew	-11.638
▁overwhelming	-11.6386
EL	-11.6391
▁thirty	-11.6395
rov	-11.6395
▁Nobel	-11.6396
▁Frank	-11.6398
▁consultations	-11.6402
▁charter	-11.641
▁endanger	-11.641
riding	-11.6412
▁eastern	-11.6415
▁justice	-11.6419
▁seize	-11.6421
▁traders	-11.6422
▁listing	-11.6422
▁urgently	-11.6425
▁revive	-11.6426
▁retaining	-11.6426
94	-11.6429
Ex	-11.6432
encies	-11.6432
▁Taken	-11.6433
star	-11.6436
▁eyes	-11.6437
▁chances	-11.644
▁reassess	-11.644
▁studied	-11.6441
▁enshrined	-11.6442
▁tourist	-11.6446
▁advocated	-11.6447
exchange	-11.6448
▁47	-11.6448
▁advise	-11.645
EN	-11.6452
Trans	-11.6453
ail	-11.6455
▁Indicators	-11.6456
▁1986	-11.6458
▁unwind	-11.6458
fect	-11.6461
AM	-11.6464
56	-11.6467
▁specify	-11.6472
▁corruption	-11.6473
▁Otherwise	-11.6473
▁TLTRO	-11.6476
holders	-11.6476
▁fed	-11.648
cle	-11.6481
▁autonomous	-11.6483
▁readings	-11.6485
▁Study	-11.6488
▁Lucas	-11.6488
▁Problem	-11.6488
▁crop	-11.6489
▁2.7	-11.6492
ndern	-11.6496
▁pause	-11.6496
▁socio	-11.65
▁constructed	-11.6503
some	-11.6503
▁incumbent	-11.6504
▁bases	-11.6504
▁Local	-11.6504
▁Throughout	-11.6505
▁quest	-11.6506
size	-11.651
▁backing	-11.6512
▁prioritize	-11.6512
▁Loans	-11.6518
▁opt	-11.6522
ente	-11.6524
▁Chilean	-11.6524
holder	-11.6526
▁stablecoin	-11.6526
▁3.3	-11.6526
▁governor	-11.6528
▁Age	-11.653
▁governed	-11.653
▁policymaker	-11.6531
▁Christopher	-11.6535
▁unavoidable	-11.6535
▁charts	-11.6537
▁hundred	-11.654
▁Tri	-11.6541
▁offsetting	-11.6542
▁Heads	-11.6544
▁thanking	-11.6545
▁dwelling	-11.6547
Measuring	-11.6551
▁dot	-11.6553
▁necessitate	-11.6565
▁grows	-11.6566
▁Earlier	-11.6566
▁multiplier	-11.6566
(1)	-11.6574
▁scholars	-11.658
▁scarcity	-11.6582
▁automobile	-11.6582
▁harmonized	-11.6585
▁abandon	-11.6587
▁arena	-11.6588
▁immune	-11.6598
▁counsel	-11.6598
▁luck	-11.6599
▁tendencies	-11.6599
ave	-11.6602
acc	-11.6603
ji	-11.6605
▁Far	-11.6606
▁Past	-11.6606
▁specification	-11.6608
▁Considering	-11.6608
▁restrained	-11.6612
cut	-11.6613
▁Equally	-11.6614
▁incidence	-11.6614
eb	-11.6614
▁quota	-11.6615
▁appointment	-11.6616
▁Improved	-11.6616
▁evolves	-11.6616
41	-11.6619
▁waves	-11.662
▁constitutional	-11.662
▁reinvestment	-11.6625
payments	-11.6628
ju	-11.6629
wind	-11.6629
▁Namibia	-11.663
▁Panetta	-11.663
▁virtue	-11.663
▁Senate	-11.663
vention	-11.6633
stabil	-11.6636
▁Additional	-11.6639
▁sein	-11.664
▁EBA	-11.6641
▁Ri	-11.6642
▁Cost	-11.6649
▁distort	-11.6649
shadow	-11.6653
▁neutrality	-11.6654
active	-11.6655
▁Greening	-11.6657
▁ceremony	-11.6661
▁variant	-11.6662
▁misconduct	-11.6662
▁ill	-11.6662
-12	-11.6662
▁corrections	-11.6665
▁computers	-11.6675
▁fosters	-11.6675
nar	-11.668
ify	-11.6682
▁court	-11.6685
▁tells	-11.6685
▁tapering	-11.6687
▁dec	-11.6692
▁scene	-11.6694
▁govern	-11.6694
▁professionalism	-11.6696
▁10).	-11.6697
pur	-11.6697
February	-11.6701
what	-11.6705
▁semi	-11.6709
▁phasing	-11.6709
On	-11.671
▁Fischer	-11.671
grade	-11.6712
▁prohibition	-11.6715
▁generates	-11.6716
▁arrive	-11.6719
▁Regulations	-11.6719
▁03	-11.6721
testing	-11.6723
▁complacent	-11.6725
▁satisfaction	-11.6725
amp	-11.6726
▁interchange	-11.6726
▁ATM	-11.6733
deposit	-11.6733
▁capitalized	-11.6734
-14	-11.6737
▁wishes	-11.6737
▁accomplish	-11.6738
▁milestones	-11.6738
▁brand	-11.6743
▁hardship	-11.6743
▁adaptability	-11.6744
BR	-11.6745
▁prescriptions	-11.6746
▁iron	-11.6747
rgen	-11.6748
now	-11.6748
ading	-11.6748
Risk	-11.6749
▁worrying	-11.675
▁avenues	-11.6752
▁studying	-11.6754
▁Mobile	-11.6757
▁Process	-11.6757
▁memory	-11.6757
▁organisers	-11.6758
ford	-11.6759
▁hopefully	-11.6762
▁Fin	-11.6764
▁transact	-11.6766
ordinated	-11.6768
aging	-11.6769
▁successes	-11.6772
▁Goals	-11.6774
▁Wo	-11.6775
▁prescribed	-11.6777
▁tailor	-11.6786
▁analyzing	-11.6787
▁breaking	-11.6788
▁RBNZ	-11.679
▁endeavor	-11.679
▁devote	-11.679
▁revert	-11.679
▁Almost	-11.679
ffi	-11.6792
▁accessing	-11.6795
▁Fran	-11.6798
green	-11.6798
▁destabilizing	-11.6806
▁Operational	-11.6806
▁Making	-11.6807
▁crimes	-11.681
ij	-11.6813
This	-11.6814
▁indexes	-11.6818
▁whilst	-11.6822
300	-11.6827
conventional	-11.6828
ett	-11.6831
▁marginally	-11.6832
SIBs	-11.6834
▁nonperforming	-11.6834
▁describing	-11.6838
▁pervasive	-11.6838
▁revival	-11.6838
read	-11.6839
▁contractionary	-11.6841
▁avert	-11.6846
wait	-11.6849
▁Sy	-11.6854
▁clarified	-11.6854
▁eligibility	-11.6854
▁western	-11.6855
▁[10]	-11.6859
▁dar	-11.686
▁EM	-11.6866
wage	-11.6867
▁Stable	-11.6869
cash	-11.687
▁Interview	-11.6871
▁classified	-11.6871
-2007	-11.6871
▁Emphasiz	-11.6871
▁Chi	-11.6877
▁directive	-11.6879
▁signing	-11.6881
▁Have	-11.6884
▁Perspectives	-11.6886
▁monétaire	-11.6887
▁reconstruction	-11.6887
▁Food	-11.6888
▁deter	-11.6894
▁ran	-11.6899
▁publications	-11.6899
▁jeopardise	-11.6903
newsevents	-11.6903
▁Britain	-11.6903
▁longterm	-11.6903
▁excludes	-11.6904
▁Trends	-11.6904
▁exerting	-11.6911
account	-11.6911
▁Guidelines	-11.6911
▁anywhere	-11.6924
traded	-11.6924
iel	-11.6928
▁ju	-11.6929
▁dispute	-11.6929
od	-11.693
▁Oxford	-11.6936
LO	-11.6936
▁Basle	-11.6936
▁(2017)	-11.6936
▁refine	-11.6937
▁confronting	-11.6943
▁(1	-11.6945
▁(2015)	-11.6947
light	-11.6947
▁incremental	-11.695
▁generous	-11.6952
▁intensification	-11.6952
▁altogether	-11.6952
▁replacement	-11.6955
▁select	-11.6956
capitalized	-11.6957
▁election	-11.6962
▁Transfer	-11.6969
eit	-11.6971
present	-11.6975
▁auditing	-11.6977
▁Pi	-11.698
▁score	-11.698
▁(2017).	-11.6983
▁Literacy	-11.6985
▁SPEECH	-11.6985
▁Lamfalussy	-11.6985
▁ri	-11.6988
step	-11.6988
▁ring	-11.6989
.18	-11.699
▁Consensus	-11.6991
▁Cal	-11.6992
ifies	-11.6992
.25	-11.6996
▁owe	-11.6998
▁leader	-11.7
▁Generally	-11.7001
▁Dublin	-11.7001
▁Performance	-11.7001
▁Petroleum	-11.7001
▁endogenous	-11.7001
▁nurture	-11.7002
cho	-11.7006
ality	-11.7013
▁Guarantee	-11.7018
▁fossil	-11.7018
CAR	-11.7018
▁Operations	-11.7018
▁Headline	-11.7018
▁proactively	-11.7021
▁Jun	-11.7026
▁Bern	-11.7027
service	-11.7028
bid	-11.7029
▁46	-11.7034
script	-11.7034
▁Northern	-11.7035
▁submission	-11.7035
Sec	-11.7039
▁elections	-11.7041
▁pessimistic	-11.7051
▁stayed	-11.7053
PP	-11.7053
▁introduces	-11.7055
▁depositor	-11.7059
▁Str	-11.706
▁modestly	-11.706
▁Individual	-11.7067
▁vs	-11.7069
▁1.6%	-11.7071
▁Initiatives	-11.7073
▁enduring	-11.7073
▁lax	-11.7077
▁Baltic	-11.7084
▁nets	-11.7085
▁capitalised	-11.7085
case	-11.7086
▁Commitment	-11.7091
58	-11.7096
▁Va	-11.7099
▁progressed	-11.71
▁exacerbating	-11.7101
BSP	-11.7101
have	-11.7103
▁broadened	-11.7103
▁worsen	-11.7108
control	-11.7111
word	-11.7117
▁pen	-11.7117
▁departure	-11.7117
▁4.5%	-11.7121
neutral	-11.7128
▁SEC	-11.7129
2011	-11.713
▁Commodity	-11.7134
▁upgrading	-11.7134
▁seemingly	-11.7134
▁spurred	-11.7134
▁rulebook	-11.7135
DP	-11.7136
67	-11.7136
Mo	-11.7138
▁Consumers	-11.7143
field	-11.7145
▁diverge	-11.7146
acy	-11.7148
▁Which	-11.7151
▁Geldpolitik	-11.7151
▁simplify	-11.7151
▁everyday	-11.7157
▁Final	-11.7157
▁Primary	-11.7167
▁dinner	-11.7167
▁judicial	-11.7167
▁susceptible	-11.7167
aire	-11.7169
▁Ju	-11.717
▁bears	-11.7171
▁Communications	-11.7172
▁bn	-11.7176
Run	-11.7177
▁distorted	-11.7179
▁offerings	-11.718
▁Region	-11.7182
▁corner	-11.7184
▁restraining	-11.7188
▁-6	-11.7195
▁devices	-11.7197
▁pave	-11.7199
▁View	-11.7201
▁unwarranted	-11.7201
tail	-11.7202
▁Europ	-11.7209
ré	-11.721
▁emp	-11.7214
▁Euroraum	-11.7218
▁Guidance	-11.7234
▁chaired	-11.7236
▁il	-11.7239
only	-11.7241
▁inability	-11.7242
▁Negative	-11.7251
▁illegal	-11.7251
▁prevalent	-11.7251
▁fuels	-11.7252
▁coefficient	-11.7252
▁Southern	-11.7255
▁Ku	-11.7256
▁retailers	-11.7258
▁encounter	-11.7258
▁sections	-11.7259
▁compliant	-11.7262
growing	-11.7263
68	-11.7267
▁minimizing	-11.7268
▁Federation	-11.7268
▁carries	-11.7269
▁requested	-11.7273
▁tightness	-11.7274
MC	-11.728
roy	-11.728
▁department	-11.728
▁(4)	-11.728
centric	-11.7282
▁flash	-11.7285
▁Slovakia	-11.7286
met	-11.7286
▁specialised	-11.7292
report	-11.7294
▁heighten	-11.7295
▁candidate	-11.7299
▁manipulation	-11.7302
▁replacing	-11.7302
ados	-11.7302
▁distant	-11.7303
▁supplementary	-11.7303
▁curves	-11.7306
▁repayments	-11.7307
PF	-11.7308
▁recognises	-11.7314
▁transmit	-11.7318
▁Bowman	-11.7319
▁definitive	-11.7319
IN	-11.732
▁manufactured	-11.7322
resident	-11.7327
tag	-11.7329
▁preservation	-11.7336
▁modify	-11.7336
▁Rural	-11.7336
▁defines	-11.7336
▁com	-11.7337
▁spell	-11.7337
where	-11.7343
▁fighting	-11.7344
▁yes	-11.7346
▁exerted	-11.7349
▁preceded	-11.7352
▁flexibly	-11.7353
▁subsidy	-11.7353
▁Transmission	-11.7353
▁ship	-11.736
▁paint	-11.7361
saving	-11.7363
▁predictions	-11.7368
▁confidentiality	-11.7371
▁expectancy	-11.7371
▁neglect	-11.7376
uf	-11.7378
petit	-11.738
69	-11.7383
▁Em	-11.7384
▁obstacle	-11.7385
▁convertibility	-11.7387
ological	-11.7388
43	-11.7389
▁rebounded	-11.7391
▁differentiated	-11.7393
▁Korean	-11.7393
25%	-11.7394
▁(2008),	-11.7395
Table	-11.7397
▁lock	-11.7398
▁unfold	-11.7398
▁Estimates	-11.7404
▁biodiversity	-11.7404
▁centralized	-11.7408
-1/2	-11.7414
▁squeeze	-11.7415
▁105	-11.7416
Governor	-11.7417
▁landing	-11.7417
▁thousands	-11.7418
▁officially	-11.742
▁insolvent	-11.7422
▁Manufacturing	-11.7423
▁pages	-11.7427
▁intrinsic	-11.7438
▁destabilising	-11.7439
▁master	-11.744
▁president	-11.744
DC	-11.745
▁modifications	-11.7454
▁parliament	-11.7454
▁redress	-11.7455
▁attended	-11.7455
anchoring	-11.7456
▁manual	-11.7457
▁0.9	-11.7457
▁PBC	-11.7461
fully	-11.7466
▁graph	-11.7466
▁conversation	-11.7472
▁Kosovo	-11.7473
▁incur	-11.7477
▁uphold	-11.7478
▁Hans	-11.7484
mission	-11.7485
percentage	-11.7487
▁reaches	-11.7489
▁video	-11.749
▁formula	-11.7491
▁1973	-11.7492
▁1.4%	-11.7495
loading	-11.7496
tem	-11.7498
linear	-11.7498
pu	-11.7499
stitu	-11.75
▁critics	-11.7506
▁guess	-11.7508
itz	-11.7508
▁Resource	-11.7508
▁Rajan	-11.7509
▁premise	-11.7509
▁51	-11.7512
▁threatening	-11.7512
▁attained	-11.7512
▁2.6	-11.7512
plan	-11.7513
▁ranking	-11.7516
▁hot	-11.7517
▁Alternative	-11.7518
▁servicers	-11.7519
▁maybe	-11.7521
▁outward	-11.7523
▁phrase	-11.7525
-2014	-11.7526
▁diversifying	-11.7526
▁securitized	-11.7527
▁textbook	-11.7527
▁4.2	-11.7528
most	-11.7532
▁dangers	-11.7532
▁protections	-11.7536
62	-11.7536
amente	-11.7538
▁prudently	-11.7538
▁disappeared	-11.754
▁Positive	-11.7542
part	-11.7546
Banking	-11.7547
▁instructions	-11.7554
▁ministers	-11.7556
▁heterogeneous	-11.756
▁peaks	-11.7563
▁1/2	-11.7565
50,000	-11.7565
▁collecting	-11.7573
iden	-11.7575
▁drastic	-11.7577
▁celebration	-11.7577
▁Close	-11.758
▁Fair	-11.758
▁internally	-11.758
regulated	-11.7584
▁Factors	-11.7594
▁earliest	-11.7595
▁flourish	-11.7595
▁proprietary	-11.7595
▁transferring	-11.7597
PC	-11.76
▁deploy	-11.7603
change	-11.7609
▁legally	-11.7615
▁converted	-11.7625
▁Generation	-11.763
▁Adam	-11.7636
▁scores	-11.7636
World	-11.7644
ade	-11.7646
▁Chancellor	-11.7647
▁acknowledging	-11.7647
▁settling	-11.7647
recapitalization	-11.7647
▁dinar	-11.7648
anti	-11.765
▁2.8	-11.7656
▁restructured	-11.7657
▁standardisation	-11.766
▁White	-11.7665
▁Underlying	-11.7665
▁traction	-11.7665
▁locations	-11.7668
▁simultaneous	-11.7676
▁entre	-11.7682
▁Please	-11.7682
▁Mersch	-11.7683
▁Michelle	-11.7683
▁stabilisers	-11.7684
▁Lars	-11.7686
▁releases	-11.7694
▁requests	-11.7696
priced	-11.7697
▁earning	-11.7698
Un	-11.7699
▁transitional	-11.77
▁Harvard	-11.77
▁allocating	-11.77
▁Bahrain	-11.77
▁District	-11.77
els	-11.7701
▁Monitoring	-11.7705
▁64	-11.7706
▁consisting	-11.7707
▁Reg	-11.7708
▁rooted	-11.7708
Ch	-11.7708
▁Media	-11.7709
▁continental	-11.771
▁summarize	-11.7711
▁respected	-11.7716
▁Too	-11.7716
▁Needles	-11.7717
hren	-11.7717
▁barely	-11.7718
▁Stein	-11.7719
▁site	-11.772
▁herd	-11.772
▁96	-11.772
▁chg	-11.772
▁recognizes	-11.7721
▁industrialized	-11.7722
▁convention	-11.7725
▁lived	-11.773
▁rulemaking	-11.7731
▁NCBs	-11.7731
▁Natural	-11.7734
▁symptom	-11.7735
▁tentative	-11.7735
LI	-11.7739
▁teachers	-11.7741
edged	-11.7743
▁Austrian	-11.7744
VC	-11.7746
▁3:	-11.7748
▁tariff	-11.7751
▁Finnish	-11.7753
▁advocating	-11.7753
▁homeownership	-11.7753
▁macroeconomy	-11.7755
-1980	-11.7757
Pro	-11.7759
sec	-11.7765
FM	-11.7767
International	-11.7768
▁Competitiveness	-11.7771
▁appraisal	-11.7771
▁stimulated	-11.7771
▁foot	-11.7773
▁nur	-11.7776
▁Around	-11.7784
▁token	-11.7785
▁49	-11.7788
▁Available	-11.7789
▁Kuala	-11.7789
▁supplied	-11.7789
▁sch	-11.779
49	-11.7792
▁pooling	-11.7792
▁rated	-11.7794
ria	-11.7796
▁advocates	-11.7797
▁withdrawals	-11.7799
▁winners	-11.78
▁downgrade	-11.7803
cient	-11.7807
▁Rapid	-11.7807
▁attributes	-11.781
54	-11.781
ugh	-11.7815
▁openings	-11.7816
ulation	-11.7817
▁assert	-11.7819
▁Min	-11.7823
▁Lumpur	-11.7824
▁storage	-11.7824
▁unrealistic	-11.7824
▁manufacturers	-11.7825
▁loosening	-11.7825
▁WTO	-11.7825
-2013	-11.7825
▁stakeholder	-11.7827
▁compares	-11.7828
▁Hub	-11.7829
ida	-11.7835
▁crowd	-11.7837
▁(2020)	-11.7837
▁TLTROs	-11.7839
▁headed	-11.7839
▁drives	-11.784
▁Treasuries	-11.7842
▁temperature	-11.7842
▁shelter	-11.7842
▁district	-11.7843
La	-11.7845
▁executives	-11.7847
▁rebuilding	-11.7847
▁passage	-11.7848
▁distributions	-11.785
▁outflow	-11.7852
▁97	-11.7869
▁describes	-11.7871
sche	-11.7878
▁corrected	-11.7878
lag	-11.7878
▁telling	-11.7879
▁disease	-11.7879
▁lever	-11.788
vision	-11.788
▁reinforces	-11.7881
73	-11.7881
▁Mis	-11.7887
▁dealer	-11.7891
▁poorer	-11.7893
▁underestimate	-11.7893
zz	-11.7893
debt	-11.7894
▁dedication	-11.7896
▁divergent	-11.7896
▁tackled	-11.7904
▁straight	-11.7914
▁protocol	-11.7914
▁flaws	-11.7914
▁comparability	-11.7915
▁counterpart	-11.7915
▁copper	-11.7915
▁Krise	-11.7916
▁flood	-11.7919
▁rewards	-11.792
▁Cho	-11.7927
▁RM	-11.7929
induced	-11.793
▁constituted	-11.7932
▁judgements	-11.7933
92	-11.7937
▁injection	-11.7937
▁(2009)	-11.7938
weight	-11.7938
vant	-11.7943
▁please	-11.7944
ane	-11.7946
▁California	-11.795
▁Standing	-11.795
▁Partnership	-11.795
▁reassessment	-11.7954
ima	-11.7966
▁Mit	-11.7969
▁durch	-11.7969
my	-11.7969
▁exceptions	-11.797
▁sie	-11.7975
owner	-11.7984
-18	-11.7984
▁Dinner	-11.7987
▁asymmetries	-11.7987
▁utilities	-11.7987
▁Health	-11.7987
▁reopening	-11.7987
▁pertaining	-11.7987
▁cheque	-11.7992
oil	-11.7993
LE	-11.7997
designed	-11.7999
▁57	-11.8
▁Would	-11.8005
▁thrust	-11.8005
▁Holding	-11.8005
▁drain	-11.8005
demand	-11.8005
▁Prize	-11.8005
▁deployment	-11.8006
▁Shin	-11.8007
▁conflicting	-11.8014
▁Comp	-11.8015
▁necessitates	-11.8016
August	-11.8022
lum	-11.8023
▁aforementioned	-11.8023
▁controversial	-11.8023
▁imminent	-11.8023
▁Closing	-11.8023
▁broke	-11.8024
▁SG	-11.8027
rc	-11.803
▁IN	-11.8035
▁separately	-11.8037
▁Forecast	-11.8038
[5]	-11.804
▁unfolding	-11.804
▁tailoring	-11.8041
▁hypothetical	-11.8041
▁prominence	-11.8041
▁strides	-11.8041
▁delinquency	-11.8041
▁Link	-11.8044
▁item	-11.8045
left	-11.8045
▁qua	-11.8047
42	-11.8049
▁presentations	-11.8051
product	-11.8051
ula	-11.8054
flat	-11.8054
▁3.7	-11.8054
▁rebalance	-11.8056
▁recognising	-11.806
▁[11]	-11.8062
▁decelerated	-11.8064
▁disputes	-11.8067
▁cashless	-11.8074
▁THE	-11.8078
▁timeline	-11.8084
▁predicting	-11.8088
ama	-11.8089
hold	-11.8092
▁0.25	-11.8092
▁Mumbai	-11.8096
▁caught	-11.8096
▁emanating	-11.8096
▁Connect	-11.8096
▁contemporary	-11.8096
▁Benefits	-11.8096
▁5.0	-11.81
▁practically	-11.8103
ium	-11.8106
▁linkage	-11.8107
▁retrospect	-11.8115
vin	-11.8116
▁2.2%	-11.8119
▁dark	-11.8124
▁Independent	-11.8125
▁wane	-11.8128
▁Hi	-11.8131
front	-11.8133
▁encompass	-11.8133
▁Memorandum	-11.8133
▁demonstrating	-11.8133
▁proximity	-11.8133
▁overarching	-11.8133
▁Luis	-11.8135
▁entailed	-11.8139
▁plant	-11.8139
87	-11.8143
▁progressing	-11.8143
bp	-11.8149
▁unfavourable	-11.8151
▁vaccination	-11.8151
nes	-11.8153
400	-11.8154
▁Out	-11.8155
▁aided	-11.8156
▁spoken	-11.816
▁layer	-11.8164
▁Fo	-11.8165
▁5.5	-11.8166
▁Propos	-11.8169
▁Outright	-11.817
▁supplemented	-11.817
▁mine	-11.817
nda	-11.8176
vel	-11.8178
▁HK	-11.818
▁exempt	-11.8183
fen	-11.8186
▁hampered	-11.8188
▁intangible	-11.8188
▁Ltd	-11.8189
▁SADC	-11.8189
good	-11.819
▁Oct	-11.8191
▁inspired	-11.8195
▁(2005),	-11.8198
pricing	-11.8199
iving	-11.8199
▁complements	-11.8202
▁realm	-11.8203
ola	-11.8204
economy	-11.8205
world	-11.8206
▁organizing	-11.8207
▁refrain	-11.8207
▁split	-11.8207
ware	-11.8208
▁Sheet	-11.8208
▁1.9%	-11.8211
▁caps	-11.8211
▁initiate	-11.8219
holding	-11.8224
.[1]	-11.8225
▁Zu	-11.8228
▁monitors	-11.8229
▁restriction	-11.8234
uv	-11.8235
ht	-11.8241
▁Fu	-11.8242
government	-11.8244
▁Amsterdam	-11.8244
▁employing	-11.8246
mod	-11.8247
▁modeling	-11.8248
effects	-11.8253
▁inward	-11.8255
hol	-11.8258
aspx	-11.8263
▁longevity	-11.8263
▁viz	-11.8265
mining	-11.8268
▁Successful	-11.8268
▁verify	-11.8269
index	-11.827
▁witness	-11.8273
▁surface	-11.8275
▁Import	-11.828
action	-11.8281
▁Gordon	-11.8282
▁cluster	-11.8282
▁Kon	-11.8288
oni	-11.8291
rai	-11.8293
▁staying	-11.8296
▁equality	-11.8298
▁penalties	-11.83
▁perimeter	-11.83
QQE	-11.8301
▁Point	-11.8301
▁reconsider	-11.8301
dal	-11.8304
ala	-11.8305
▁declared	-11.8307
▁Il	-11.8309
ui	-11.8309
▁similarities	-11.8309
▁hourly	-11.8312
▁Dan	-11.8313
▁estimating	-11.8319
Pacific	-11.8319
▁subordinated	-11.832
▁Bound	-11.832
▁obliged	-11.8321
▁convince	-11.8331
▁fixing	-11.8332
▁sacrifice	-11.8336
APP	-11.8337
▁consolidating	-11.8338
▁Whereas	-11.8341
▁solving	-11.8343
▁Blanchard	-11.8344
▁stipulat	-11.8345
▁(2006),	-11.8346
▁assesses	-11.8346
▁incidents	-11.8347
esidential	-11.8351
BoE	-11.8355
▁ACPR	-11.8357
▁Recognition	-11.8357
▁SEK	-11.8357
▁qualify	-11.836
cia	-11.8361
▁KYC	-11.8365
averse	-11.837
traditional	-11.8371
▁debtor	-11.8373
▁Prospects	-11.8374
▁Neither	-11.8376
Com	-11.8389
▁sharper	-11.8392
ending	-11.8392
▁[12]	-11.8393
▁phones	-11.8394
▁Crises	-11.8394
▁influential	-11.8394
▁Persistent	-11.8394
▁grand	-11.8398
▁issuances	-11.84
▁attempted	-11.8402
▁rolling	-11.8404
nde	-11.8406
▁delinquencies	-11.8413
▁observing	-11.8413
▁ONS	-11.8418
▁2026	-11.8419
▁tilted	-11.8419
89	-11.842
▁lengthy	-11.8422
▁Saudi	-11.8425
ene	-11.8425
uer	-11.8426
host	-11.8428
DF	-11.8428
▁blunt	-11.8432
▁unanticipated	-11.8432
▁Fisher	-11.8432
▁Think	-11.8433
▁Praet	-11.8433
frequency	-11.8433
▁negotiated	-11.8436
▁(2014)	-11.8438
▁modernization	-11.8438
TLTRO	-11.8441
mas	-11.8446
▁identical	-11.8451
▁simplicity	-11.8451
▁motion	-11.8453
▁heads	-11.8453
▁touched	-11.8455
▁passive	-11.8458
▁mounting	-11.846
1.0	-11.8461
▁finalised	-11.8462
▁94	-11.8465
▁Par	-11.8467
▁CESEE	-11.847
July	-11.8471
FIN	-11.8473
▁disadvantage	-11.8473
▁occasionally	-11.8478
▁Pri	-11.8479
▁quantum	-11.8479
eren	-11.8485
▁Sie	-11.8485
▁3.4	-11.8486
▁amplifying	-11.8488
▁ECOFIN	-11.8489
▁Sustainability	-11.8489
▁Complet	-11.849
▁solved	-11.8492
▁Pat	-11.8495
▁econ	-11.8497
▁hoped	-11.8499
▁Full	-11.85
▁OMT	-11.85
half	-11.85
▁embark	-11.8501
nam	-11.8503
▁badly	-11.8503
▁Stanley	-11.8509
▁acquiring	-11.8509
▁niche	-11.8509
▁pegged	-11.8509
gin	-11.851
▁horizontal	-11.8511
▁depression	-11.8514
▁Later	-11.8515
aj	-11.8516
▁conglomerates	-11.8517
▁inspire	-11.8521
▁6.5	-11.8522
▁Zero	-11.8528
Challenges	-11.8529
▁48	-11.8539
▁divide	-11.854
own	-11.854
▁composed	-11.8547
▁Yves	-11.8547
▁(*)	-11.8547
▁fault	-11.8547
▁Zeit	-11.8547
▁kick	-11.8548
▁tenure	-11.8551
▁advocate	-11.8551
▁Representatives	-11.8553
▁einen	-11.8556
▁calibrate	-11.8559
▁Freddie	-11.8566
▁Texas	-11.8566
▁efficiencies	-11.8566
▁Revolution	-11.8567
▁resistance	-11.8567
▁Gi	-11.8567
▁stretch	-11.8568
Great	-11.8568
▁exhibited	-11.8568
▁(2008)	-11.8577
▁cease	-11.8579
▁iii	-11.858
▁lent	-11.858
▁Evolution	-11.8585
▁migrant	-11.8585
▁professor	-11.8585
▁Lord	-11.8586
benefit	-11.8587
▁persists	-11.8598
-21	-11.8599
▁frauds	-11.86
hal	-11.8601
-6	-11.8601
▁handled	-11.8602
▁NBFI	-11.8605
BIS	-11.8606
▁Road	-11.8607
▁registration	-11.8608
nan	-11.861
aba	-11.8612
▁preconditions	-11.8618
check	-11.8619
.[2]	-11.862
loaded	-11.862
▁2.9	-11.8621
▁reluctance	-11.8624
▁baby	-11.8625
▁GSEs	-11.8627
▁hoc	-11.8632
wan	-11.8633
▁mechanical	-11.8637
Di	-11.8642
▁Madrid	-11.8643
▁everybody	-11.8643
▁stagnant	-11.8643
▁grasp	-11.8643
[17]	-11.8644
▁Changing	-11.8644
▁worthwhile	-11.8644
fulfilling	-11.8645
▁1.8%	-11.8648
▁hundreds	-11.8656
▁quo	-11.8659
▁Tetangco	-11.8663
▁calculating	-11.8663
▁competencies	-11.8663
▁universe	-11.8663
shoring	-11.8663
direct	-11.8663
▁premises	-11.8664
▁Reinvestment	-11.8665
CBDC	-11.8665
▁2.1%	-11.8667
▁surcharge	-11.8675
▁absent	-11.8676
emi	-11.8677
▁Pal	-11.8678
▁grants	-11.8679
▁Less	-11.868
▁engender	-11.8682
▁accumulating	-11.8682
▁remedy	-11.8682
▁attentive	-11.8682
▁Sometimes	-11.8683
▁Evaluation	-11.8683
▁mask	-11.8684
slide	-11.8685
▁friend	-11.8688
nov	-11.8692
2018	-11.8693
rious	-11.8695
RP	-11.8695
▁Apr	-11.87
SMEs	-11.8701
▁equip	-11.8701
▁Issing	-11.8703
[6]	-11.8704
▁Letter	-11.8709
elect	-11.8718
▁Brief	-11.8721
▁drafting	-11.8722
▁reversals	-11.8722
flation	-11.874
▁Presidency	-11.8741
▁misallocation	-11.8742
Basel	-11.8743
▁CCAR	-11.8744
▁curtail	-11.8749
▁updates	-11.8754
▁deserves	-11.8758
mando	-11.876
▁blind	-11.8761
group	-11.8762
▁knowing	-11.8762
▁beliefs	-11.8762
▁sake	-11.8763
▁Subsequently	-11.8763
▁midpoint	-11.8763
▁decreases	-11.8766
▁ES	-11.8771
politik	-11.8776
tat	-11.8779
cryptocurrencies	-11.878
▁diagnosis	-11.878
▁unforeseen	-11.878
rica	-11.8782
▁Val	-11.8782
cap	-11.8787
▁withdrawn	-11.8789
▁death	-11.8789
oke	-11.8791
▁3.6	-11.8791
▁declare	-11.8793
▁clarification	-11.88
▁restoration	-11.88
▁SRM	-11.8801
▁Southeast	-11.8804
fle	-11.8805
▁exporting	-11.8808
funded	-11.8811
▁reward	-11.8814
▁educated	-11.8815
del	-11.8815
ND	-11.8818
▁Leverage	-11.8819
aggregat	-11.882
▁abstract	-11.882
▁leeway	-11.882
ello	-11.882
▁privatization	-11.8821
▁renewal	-11.8822
last	-11.8822
BE	-11.8824
▁appearance	-11.8826
▁nationally	-11.8829
pot	-11.883
eh	-11.8832
▁amendment	-11.8834
▁deepened	-11.8835
ncia	-11.884
▁label	-11.8841
▁Creat	-11.8844
lia	-11.8844
uit	-11.8849
▁exhibition	-11.8851
▁citizen	-11.8858
▁catastrophe	-11.8859
▁silver	-11.8859
▁father	-11.8859
▁greenhouse	-11.8861
▁claimed	-11.8861
▁PPP	-11.8862
600	-11.8863
OS	-11.8868
▁flowing	-11.887
▁Mishkin	-11.8871
▁DI	-11.8875
ney	-11.8878
▁Crypto	-11.8879
jan	-11.8879
▁arisen	-11.888
▁unter	-11.8881
ESRB	-11.8883
▁ich	-11.8893
▁Case	-11.8898
▁Especially	-11.8899
▁battle	-11.8899
▁affirm	-11.8899
▁Agenda	-11.8899
▁imposes	-11.8911
▁Test	-11.8912
▁lockdown	-11.8914
▁3)	-11.8916
▁Croatia	-11.8919
▁Learning	-11.8919
▁arrival	-11.8919
▁dream	-11.8919
▁impart	-11.8919
▁mon	-11.8924
cit	-11.8936
-17	-11.8936
ecu	-11.8938
▁escalation	-11.8939
▁fifteen	-11.8939
▁venue	-11.8939
▁beneficiaries	-11.8939
▁reversing	-11.8939
▁wars	-11.894
▁cla	-11.8941
▁bolstered	-11.8941
security	-11.8942
▁dwell	-11.8944
pass	-11.8951
▁cautiously	-11.8958
▁ranks	-11.8959
▁Function	-11.8959
▁Jerome	-11.8959
▁Population	-11.8959
▁disregard	-11.8959
▁newspaper	-11.8959
▁questioned	-11.8959
▁coincide	-11.8965
teil	-11.8966
▁Environment	-11.8972
safe	-11.8973
▁Island	-11.8976
disciplinary	-11.8979
▁Akhtar	-11.8979
▁Chapter	-11.8979
▁uninsured	-11.8979
▁chronic	-11.8979
▁mobilise	-11.8979
▁Harmonised	-11.8982
▁Opportunities	-11.8984
▁53	-11.8984
▁establishes	-11.8985
▁Poor	-11.899
entrepreneur	-11.8991
té	-11.8992
▁behaviors	-11.8996
▁Atlanta	-11.8999
▁penalty	-11.8999
▁probabilities	-11.8999
▁smartphone	-11.8999
▁Morgan	-11.8999
▁responsiveness	-11.9001
-16	-11.9003
▁hardest	-11.9009
CM	-11.9011
▁deny	-11.9014
▁Gal	-11.9014
fence	-11.9015
▁ingredient	-11.9015
EF	-11.9018
▁Capacity	-11.9019
▁confusion	-11.9019
▁precision	-11.9019
▁secret	-11.9019
▁VAT	-11.902
▁maximise	-11.9023
NS	-11.9033
sky	-11.9035
▁Bagehot	-11.9039
▁Fannie	-11.9039
▁legislators	-11.9039
▁organizers	-11.904
▁Kenyan	-11.9041
▁Janet	-11.9043
about	-11.9047
NP	-11.9055
▁heat	-11.9056
▁merchant	-11.9056
▁brokers	-11.9057
▁FA	-11.9057
▁collaborating	-11.9059
▁Mutual	-11.9059
Europe	-11.9063
▁son	-11.9064
▁pioneer	-11.9064
NI	-11.9067
▁collateralized	-11.9069
▁Commissioner	-11.9071
▁negligible	-11.9072
▁Bonds	-11.9073
▁econom	-11.9073
▁Increase	-11.9073
▁RE	-11.9074
▁Decision	-11.9076
▁Convergence	-11.908
▁periphery	-11.908
▁2.0%	-11.9085
▁sincere	-11.9091
▁printing	-11.9094
▁adult	-11.9097
▁privileged	-11.9097
▁Who	-11.9098
▁Planning	-11.9102
▁SEE	-11.9104
▁tolerate	-11.9106
return	-11.9106
▁creativity	-11.912
▁Noyer	-11.912
▁toolbox	-11.912
▁Sal	-11.9123
▁Ber	-11.9127
▁(2016)	-11.9127
tent	-11.9129
▁coincided	-11.913
liche	-11.9132
▁recipient	-11.9138
▁MFIs	-11.914
▁Suisse	-11.9141
▁scaling	-11.9141
leveraging	-11.9141
▁11).	-11.9144
▁deem	-11.9146
▁produces	-11.9147
▁ranked	-11.9147
1)	-11.9149
0.2	-11.9158
▁clause	-11.9159
▁interference	-11.9161
▁quasi	-11.9162
▁Jens	-11.9162
▁inertia	-11.9163
▁permits	-11.9164
▁Islands	-11.9165
managed	-11.9167
▁Mor	-11.9169
▁contracting	-11.917
ram	-11.9172
test	-11.9173
▁tranches	-11.9175
▁presently	-11.9181
▁insofar	-11.9181
▁retreat	-11.9182
▁lira	-11.9182
▁Contribution	-11.9185
IOSCO	-11.9187
ller	-11.9187
91	-11.9194
lor	-11.9194
▁seamless	-11.9195
▁redemption	-11.92
▁monopoly	-11.9202
-1/4	-11.9202
MPC	-11.9209
CCB	-11.921
Li	-11.9217
▁Sim	-11.9218
▁Volatility	-11.9222
▁NBU	-11.9222
2019	-11.9223
-2012	-11.9224
OM	-11.9225
▁illiquidity	-11.9226
▁behavioural	-11.9226
pped	-11.9228
ulating	-11.9229
▁decisionmaking	-11.9234
▁enforced	-11.9237
both	-11.9239
▁Vienna	-11.9243
▁substance	-11.9243
▁(1997)	-11.9243
▁Andreas	-11.9243
graph	-11.9244
▁2.3%	-11.9246
▁tasked	-11.9248
▁Shocks	-11.925
iva	-11.9253
▁precedent	-11.9253
lig	-11.9256
▁pools	-11.9263
▁Excellency	-11.9264
▁organising	-11.9264
▁Guinea	-11.9264
▁processed	-11.9264
▁conform	-11.9265
▁machines	-11.9267
[7]	-11.927
▁attaining	-11.9279
▁articles	-11.928
▁Bur	-11.9281
ved	-11.9282
tiva	-11.9284
▁courage	-11.9284
▁formidable	-11.9284
▁Borio	-11.9285
One	-11.9285
▁4.1	-11.9291
▁Dealer	-11.9291
ask	-11.9293
▁substitutes	-11.9295
has	-11.9298
▁wo	-11.9298
▁disciplined	-11.9301
▁extraordinarily	-11.9305
▁gasoline	-11.9305
▁Statute	-11.9305
▁exploited	-11.9306
elli	-11.931
.[3]	-11.9311
ario	-11.9316
▁Sea	-11.9317
▁normalize	-11.9319
▁routine	-11.9319
▁expressing	-11.9319
scribe	-11.9322
▁Bro	-11.9323
ease	-11.9324
▁91	-11.9325
▁fits	-11.9326
▁resurgence	-11.9326
▁accrue	-11.9326
▁13%	-11.9327
▁1981	-11.9327
▁parliaments	-11.9327
aming	-11.9328
▁discover	-11.9329
▁Initially	-11.9331
qua	-11.9333
▁habits	-11.9334
stand	-11.9337
PD	-11.9337
▁Very	-11.9339
Be	-11.9341
▁acc	-11.9341
▁CCyB	-11.9343
▁occurrence	-11.9347
▁agile	-11.9347
▁Bru	-11.9348
▁1982	-11.9348
▁exaggerated	-11.9348
▁1979	-11.9349
▁preferable	-11.935
▁feared	-11.9353
Euro	-11.9353
▁Whatever	-11.9354
eva	-11.9355
▁Pandemic	-11.9355
▁zum	-11.9358
▁dissipate	-11.9361
-08	-11.9362
iness	-11.9362
▁1920	-11.9363
▁cooperatives	-11.9364
▁Ombudsman	-11.9367
▁privately	-11.9371
fiscal	-11.9374
▁directives	-11.9377
▁injected	-11.9378
▁differentiate	-11.9381
▁Lee	-11.9382
terdependencies	-11.9388
▁feasibility	-11.9388
▁Pan	-11.9389
▁nach	-11.9391
▁blow	-11.9394
power	-11.9395
Policy	-11.9395
▁pas	-11.9404
▁waste	-11.9405
▁proxy	-11.9409
▁brake	-11.9409
▁depict	-11.941
▁(2014).	-11.9412
▁Interbank	-11.9413
▁SIFIs	-11.9413
▁policyholders	-11.9414
▁Sur	-11.942
▁92	-11.9421
▁aspirations	-11.943
▁accident	-11.943
▁forgotten	-11.943
▁striving	-11.943
▁unwilling	-11.943
▁intervened	-11.9431
▁consultative	-11.9431
▁united	-11.9432
▁Export	-11.9448
preparatory	-11.9451
Le	-11.9452
-24	-11.9452
▁transformative	-11.9452
changing	-11.9457
▁QT	-11.946
▁Tankan	-11.9461
▁teaching	-11.9462
▁disclosed	-11.9463
lip	-11.9464
▁Don	-11.9465
▁forcing	-11.9467
▁Was	-11.9471
▁embodied	-11.9472
▁migrate	-11.9472
▁updating	-11.9472
▁enactment	-11.9473
gui	-11.9485
ella	-11.9486
▁dismiss	-11.9487
▁license	-11.9487
▁Gap	-11.9488
▁mentioning	-11.9492
▁utilize	-11.9492
meeting	-11.95
▁MP	-11.9503
vor	-11.9505
ude	-11.9508
▁Clear	-11.9513
▁58	-11.9513
care	-11.9513
▁austerity	-11.9514
▁inclined	-11.9514
▁invaluable	-11.9514
▁Fixed	-11.9514
▁propagation	-11.9515
January	-11.9522
▁underlined	-11.9526
▁developmental	-11.9526
▁rough	-11.953
▁Differences	-11.9531
edge	-11.9535
▁Mat	-11.9535
▁intertwined	-11.9536
[18]	-11.9536
▁Excessive	-11.9536
lean	-11.9541
52	-11.9541
▁FRB	-11.9546
▁shore	-11.9556
wirtschaft	-11.9557
▁Weidmann	-11.9557
▁hidden	-11.9557
▁proliferation	-11.9557
▁survival	-11.9557
apua	-11.9559
%20	-11.956
▁1.2%	-11.9564
HA	-11.9566
trans	-11.9566
balanced	-11.957
▁IOSCO	-11.9573
és	-11.9575
viable	-11.9576
away	-11.9578
▁Bitcoin	-11.9578
▁CHF	-11.9578
▁steel	-11.9578
▁Adrian	-11.9578
-23	-11.9581
bis	-11.9583
▁modernisation	-11.9586
average	-11.9586
eur	-11.9587
▁blame	-11.9593
wo	-11.9594
▁[13]	-11.9594
▁Convention	-11.9595
▁Practices	-11.9596
▁LTV	-11.9599
▁preferential	-11.96
▁plain	-11.96
▁Justice	-11.9601
▁Infrastructures	-11.9603
▁guideline	-11.9604
▁accompany	-11.9605
compliant	-11.9607
regulatory	-11.9608
Why	-11.9609
▁annualized	-11.9612
▁lifetime	-11.9613
▁Anniversary	-11.9621
▁announcing	-11.9621
▁substantive	-11.9621
▁suppress	-11.9621
▁1983	-11.9622
▁PNG	-11.9624
▁1975	-11.9625
print	-11.9629
Capital	-11.9629
▁arrived	-11.963
▁Wages	-11.9631
▁Za	-11.9632
▁judges	-11.9632
▁transitioning	-11.9633
RBI	-11.9635
▁organise	-11.9635
▁52	-11.9636
▁realization	-11.964
▁appropriateness	-11.9641
elastic	-11.9647
▁SEP	-11.965
88	-11.9652
▁biases	-11.9654
▁proving	-11.9664
▁conversations	-11.9665
sub	-11.9666
▁fluctuation	-11.9667
▁functionality	-11.9668
▁seeds	-11.9669
▁fish	-11.9671
▁esta	-11.9677
▁Van	-11.9678
▁IBF	-11.9679
▁Vor	-11.9685
▁observable	-11.9685
▁proposing	-11.9685
▁Doing	-11.9687
▁overlap	-11.9688
order	-11.9688
▁longest	-11.9689
▁11%	-11.9691
▁intensifying	-11.9694
▁inspections	-11.9696
▁encountered	-11.97
gate	-11.9705
▁Haldane	-11.9707
▁Participants	-11.9707
▁creditworthy	-11.9707
▁grievance	-11.9707
▁salaries	-11.9707
▁indicative	-11.9707
▁stating	-11.971
▁focussed	-11.9713
▁14%	-11.9714
▁warned	-11.9716
▁inject	-11.972
▁cre	-11.9725
ks	-11.9725
▁seasonal	-11.9726
▁Stephen	-11.9728
▁nowadays	-11.9728
▁patience	-11.9728
▁europ	-11.9729
nahmen	-11.973
▁(2023)	-11.973
▁materialised	-11.973
▁detection	-11.9732
▁Filipino	-11.9732
ami	-11.9738
▁climb	-11.9739
tax	-11.9741
▁abandoned	-11.9744
une	-11.9744
▁este	-11.9744
▁prosper	-11.9748
▁knock	-11.975
▁Phase	-11.975
▁Shift	-11.9751
▁hospitality	-11.9751
▁indefinitely	-11.9751
▁MIT	-11.9758
86	-11.9761
▁Rating	-11.9767
▁engineer	-11.9768
ville	-11.977
▁Overseas	-11.9772
▁daunting	-11.9772
▁Percentage	-11.9772
▁Amid	-11.9773
▁thousand	-11.9776
▁friction	-11.9776
▁newer	-11.9778
▁BCBS	-11.9781
efficient	-11.9781
▁incorporates	-11.9781
▁print	-11.9786
MO	-11.9787
▁realisation	-11.9789
vit	-11.9791
▁Manila	-11.9793
▁capturing	-11.9793
▁exemplified	-11.9793
▁Regime	-11.9794
▁authorisation	-11.9795
▁Managers	-11.9796
TO	-11.9797
▁Implementing	-11.9798
▁director	-11.9798
▁Plans	-11.98
ordin	-11.9803
[8]	-11.9803
74	-11.9803
/10	-11.9806
▁probable	-11.9815
▁pride	-11.9816
vil	-11.9817
▁DNB	-11.9819
rant	-11.9819
2,000	-11.982
▁weekend	-11.9821
▁Bulgarian	-11.9824
▁refined	-11.9824
▁correlations	-11.983
▁persisted	-11.9832
▁undertook	-11.9837
▁Philadelphia	-11.9837
▁Mae	-11.9838
▁overseeing	-11.9838
▁rush	-11.9838
tta	-11.9839
▁distortion	-11.9843
vid	-11.9844
▁prize	-11.9845
▁reformed	-11.9851
▁88	-11.9853
▁tradeoffs	-11.9854
face	-11.9857
▁Expert	-11.9859
▁Stearns	-11.9859
▁retention	-11.9859
▁reconcile	-11.9859
▁timeliness	-11.986
BF	-11.9861
tric	-11.9862
▁1.3%	-11.9863
determined	-11.9867
▁0%	-11.9867
percent	-11.9872
▁predominant	-11.9874
▁identifies	-11.9881
▁seminars	-11.9881
▁angle	-11.9884
▁sorts	-11.9887
▁executed	-11.9888
disproportionate	-11.9888
sponsored	-11.9891
TR	-11.9891
▁qualifications	-11.9892
▁allowance	-11.9893
▁Ph	-11.9894
▁underpins	-11.9897
▁Stefan	-11.9903
▁rep	-11.9904
Po	-11.9905
▁stressing	-11.9906
▁2.4%	-11.9908
eff	-11.9909
ogni	-11.9912
relevant	-11.9913
trend	-11.9921
▁eds	-11.9923
▁Derivatives	-11.9925
▁estabilidad	-11.9925
▁hybrid	-11.9925
▁Summers	-11.9925
▁device	-11.9931
-22	-11.9937
▁0.3%	-11.9943
▁(1998)	-11.9947
▁ELB	-11.9947
empt	-11.9952
▁Chartered	-11.9956
varying	-11.9957
▁neglected	-11.9962
▁square	-11.9962
AML	-11.9965
▁3.8	-11.9967
▁child	-11.9969
▁Svensson	-11.9969
▁activated	-11.9973
play	-11.9973
▁warming	-11.9975
occ	-11.9979
▁disadvantages	-11.998
▁gro	-11.998
▁inaction	-11.9981
aged	-11.9985
▁remark	-11.9989
▁Aziz	-11.9991
▁celebrating	-11.9991
▁doubling	-11.9991
▁street	-11.9991
▁outlays	-11.9991
aharan	-11.9991
▁Book	-11.9992
▁fulfilment	-11.9995
▁Gar	-11.9999
▁Ger	-12
▁wellbeing	-12.0003
.[4]	-12.0005
Invest	-12.0005
▁undergo	-12.0007
ika	-12.0008
cf	-12.001
duce	-12.0013
▁CEPR	-12.0013
▁Century	-12.0013
▁delicate	-12.0013
▁flattening	-12.0013
▁millennium	-12.0013
▁FATF	-12.0017
WA	-12.0019
▁assignment	-12.0021
reinforcing	-12.0024
HICP	-12.0024
especially	-12.0024
excluding	-12.0024
▁bloc	-12.0025
▁circles	-12.0026
▁streamline	-12.003
LT	-12.0031
▁Sin	-12.0033
▁Above	-12.0036
▁inspiration	-12.0036
▁Interestingly	-12.0036
▁rolled	-12.0037
▁streamlined	-12.0043
(2)	-12.0047
Pages	-12.0048
push	-12.0049
▁Expansion	-12.0058
▁Zeti	-12.0058
▁judging	-12.0058
▁José	-12.0058
▁contend	-12.0058
NSFR	-12.0059
▁attendant	-12.0059
▁ihre	-12.006
▁wherever	-12.006
▁Reference	-12.0065
ndez	-12.0066
GFC	-12.0072
▁115	-12.0072
proof	-12.0072
aki	-12.0079
▁Globally	-12.0079
▁Dombret	-12.008
▁Unconventional	-12.0081
▁redemptions	-12.0083
▁Fra	-12.0086
Ro	-12.0087
▁friendly	-12.0088
▁einem	-12.0091
informed	-12.0091
mica	-12.0094
▁somewhere	-12.0097
▁arguing	-12.0103
▁forbearance	-12.0103
▁Edward	-12.0103
▁Libra	-12.0104
▁preemptive	-12.0106
▁proposes	-12.0109
NPLs	-12.0113
rew	-12.0119
▁Pra	-12.0119
▁125	-12.0121
▁Design	-12.0121
▁4.3	-12.0122
▁abruptly	-12.0123
▁Kar	-12.0125
▁Dudley	-12.0125
▁Zentralbank	-12.0125
▁CPMI	-12.0126
▁Mention	-12.0126
▁promised	-12.0127
▁tick	-12.0128
71	-12.0128
▁rain	-12.0132
▁avenue	-12.0133
▁dysfunction	-12.0135
▁encompassing	-12.0135
▁workplace	-12.0135
▁articulated	-12.0135
kar	-12.0137
RT	-12.0137
▁bout	-12.0141
nen	-12.0144
▁generalised	-12.0146
▁2008-09	-12.0148
uck	-12.015
▁isolated	-12.0151
▁sellers	-12.0154
▁deepest	-12.0155
2024	-12.0155
▁Perspective	-12.0156
▁attempting	-12.0156
▁Aggregate	-12.0157
▁tenth	-12.0163
▁depreciate	-12.0164
▁execute	-12.0164
▁reject	-12.0169
▁exercised	-12.0171
▁love	-12.0171
▁experiments	-12.0172
fica	-12.0175
▁visits	-12.018
second	-12.0183
raising	-12.0186
▁Cabinet	-12.0193
▁Number	-12.0193
▁Volume	-12.0193
▁onshore	-12.0193
▁regained	-12.0194
TE	-12.0194
▁Roger	-12.0194
▁eleven	-12.0195
▁Concern	-12.0202
▁7.5	-12.0202
large	-12.0203
Credit	-12.0205
▁noise	-12.0208
▁upgraded	-12.0208
▁postpone	-12.0209
Latest	-12.021
▁fifty	-12.0216
▁unilateral	-12.0216
▁shopping	-12.0216
▁Prepar	-12.0216
▁advisers	-12.0216
condition	-12.0226
first	-12.0228
▁fortunate	-12.0232
▁ni	-12.0234
▁000	-12.0234
▁turbulences	-12.0236
chte	-12.0236
▁Milton	-12.0238
politische	-12.0242
▁hotel	-12.0245
▁busts	-12.0245
CCI	-12.0246
72	-12.0247
▁fan	-12.0248
▁combines	-12.0257
uré	-12.0259
complicating	-12.0261
▁meltdown	-12.0261
▁prejudice	-12.0261
▁stepping	-12.0265
▁constraining	-12.0272
[9]	-12.0273
▁APRA	-12.0284
▁CBN	-12.0284
▁profoundly	-12.0287
▁surpass	-12.0296
raw	-12.0297
rdian	-12.03
▁disagree	-12.0301
▁ministries	-12.0307
▁vacancy	-12.0307
▁wholly	-12.0307
▁Participation	-12.0307
▁encompasses	-12.031
▁62	-12.0311
▁correcting	-12.0311
▁breaches	-12.0312
▁barrier	-12.0317
say	-12.0322
bert	-12.0322
▁season	-12.0326
▁conservation	-12.033
▁evasion	-12.033
▁syndicat	-12.033
▁Accountability	-12.0331
▁selective	-12.0331
▁resumption	-12.0331
▁financi	-12.0334
▁noch	-12.0335
▁utiliz	-12.0335
neighbouring	-12.0338
ular	-12.034
▁refinement	-12.0342
▁recording	-12.0342
▁richer	-12.0346
▁recruit	-12.0352
▁shipping	-12.0353
▁coincidence	-12.0353
▁signalled	-12.0356
▁Men	-12.0357
10,000	-12.0357
▁odds	-12.0359
▁overlooked	-12.0362
▁fluctuated	-12.0363
▁resumed	-12.0364
Future	-12.0366
▁shut	-12.0374
▁neighbor	-12.0376
▁Quality	-12.0376
▁Royal	-12.0376
pub	-12.0378
▁sponsor	-12.038
▁1.1%	-12.0381
▁seasonally	-12.0383
▁VI	-12.0386
▁emerges	-12.0386
▁LVR	-12.039
▁BANK	-12.0393
▁manifestation	-12.0394
▁Admittedly	-12.0399
▁Agriculture	-12.0399
▁decentralized	-12.0399
▁lakh	-12.0399
▁command	-12.0399
▁misuse	-12.04
▁breakthrough	-12.0401
▁Seven	-12.041
▁800	-12.042
rick	-12.0421
hrungsunion	-12.0422
▁Fundamental	-12.0422
▁Rupee	-12.0422
▁circumvent	-12.0422
▁complication	-12.0422
▁recurring	-12.0422
▁kann	-12.0422
▁TFP	-12.0423
▁modernize	-12.0425
flu	-12.0426
▁FMIs	-12.0428
▁Mediterranean	-12.0428
III	-12.0438
▁fun	-12.0441
▁mimeo	-12.0445
▁authorised	-12.0446
▁Del	-12.0447
law	-12.0448
▁liberalised	-12.0449
▁incident	-12.0457
▁cooling	-12.0461
▁pledge	-12.0462
▁scaled	-12.0465
voca	-12.0466
▁61	-12.0467
▁Stanford	-12.0469
▁Transformation	-12.0469
▁metric	-12.047
▁Operat	-12.0473
▁Digitalisation	-12.0473
▁Establishing	-12.0475
▁confirmation	-12.0483
▁56	-12.049
aut	-12.0491
▁Glenn	-12.0492
▁reassure	-12.0492
▁Valley	-12.0492
▁sun	-12.0494
▁enlarged	-12.0495
▁clauses	-12.0495
clear	-12.0498
There	-12.0499
▁adaptive	-12.05
TC	-12.0502
emp	-12.0507
▁cool	-12.051
▁adjustable	-12.0511
▁Carl	-12.0511
▁resident	-12.0511
▁Keeping	-12.0515
▁counterfactual	-12.0515
▁illusion	-12.0515
▁pockets	-12.0515
▁temper	-12.0515
▁filter	-12.0515
▁blueprint	-12.0515
▁vertical	-12.0516
▁intact	-12.0516
▁ingredients	-12.052
▁structurally	-12.0521
▁honored	-12.0522
room	-12.0522
▁restricting	-12.0524
cular	-12.0525
▁Jon	-12.0527
▁sheer	-12.0528
▁Jahre	-12.0529
will	-12.0529
▁quicker	-12.0532
▁unrest	-12.0537
So	-12.0537
▁commun	-12.0538
▁Reuters	-12.0539
lio	-12.0539
▁Collective	-12.0539
▁Ville	-12.054
▁SDR	-12.0545
2.0	-12.0547
▁complementing	-12.0551
Tech	-12.0553
ESM	-12.0555
anc	-12.0557
▁miss	-12.0557
gue	-12.0559
▁Puerto	-12.0562
▁exploration	-12.0562
▁intervening	-12.0562
bul	-12.0565
eben	-12.0566
▁tokens	-12.0567
▁thin	-12.0568
▁x	-12.0571
tradable	-12.0577
▁FSAP	-12.0579
▁investigate	-12.0579
▁Cap	-12.0579
▁constitution	-12.058
▁NOK	-12.0586
▁Personal	-12.0586
▁ventures	-12.0587
▁normalise	-12.0588
politic	-12.0589
▁periodically	-12.0595
▁Auf	-12.0595
▁loops	-12.0597
▁collateralised	-12.0599
▁Tel	-12.0606
FB	-12.0608
▁displayed	-12.0609
▁lively	-12.0609
▁analogy	-12.0609
▁stimulative	-12.0609
▁Award	-12.0609
-2010	-12.0612
PSS	-12.0617
▁bin	-12.0617
▁6.0	-12.0617
▁akin	-12.062
wood	-12.0621
ese	-12.0621
900	-12.0631
mico	-12.0633
▁bps	-12.0635
ime	-12.0638
84	-12.064
▁install	-12.064
pol	-12.0641
▁missed	-12.0645
▁habit	-12.0648
▁captures	-12.065
▁categor	-12.0653
QE	-12.0655
▁revising	-12.0657
Pierre	-12.0657
ngel	-12.066
▁winding	-12.0666
▁switching	-12.0667
hit	-12.0671
▁simulation	-12.0671
ius	-12.0672
▁insurer	-12.0673
itting	-12.0675
▁Wal	-12.0677
53	-12.0678
journal	-12.068
▁Agent	-12.0682
▁till	-12.0683
▁assisted	-12.0684
▁2.8%	-12.0685
▁approached	-12.0688
▁justification	-12.069
▁deliberately	-12.0692
eck	-12.0693
▁67	-12.0698
lev	-12.0702
▁Handbook	-12.0704
▁exuberance	-12.0704
▁optimum	-12.0704
▁Encouragement	-12.0705
-13	-12.0708
▁skewed	-12.0708
▁Deep	-12.0709
▁timetable	-12.0713
▁12).	-12.0714
▁hinges	-12.0715
▁rounds	-12.0717
▁segmentation	-12.0718
▁Improvements	-12.072
▁urged	-12.0722
▁netting	-12.0723
▁Donald	-12.0728
▁EONIA	-12.0728
▁Indigenous	-12.0728
▁Laubach	-12.0728
▁Monnet	-12.0728
▁Cooperative	-12.0729
▁geo	-12.0729
schaft	-12.073
▁trained	-12.0736
2.5	-12.0738
▁traffic	-12.0752
▁precios	-12.0752
▁perverse	-12.0752
▁subscribe	-12.0753
▁quoted	-12.0753
▁yourself	-12.0754
▁poised	-12.0754
markt	-12.0754
▁18%	-12.076
▁endure	-12.0761
fits	-12.0764
Chair	-12.0767
die	-12.0767
▁63	-12.0768
content	-12.0768
▁Traditional	-12.0769
2)	-12.0772
▁graduate	-12.0775
▁tide	-12.0777
▁simplification	-12.0784
gur	-12.0787
▁usefulness	-12.0791
▁tipo	-12.0791
▁throw	-12.0792
▁briefing	-12.0793
▁advisor	-12.0797
▁Schnabel	-12.08
▁appreciably	-12.08
▁pleasant	-12.08
▁jeopardiz	-12.08
roll	-12.08
▁himself	-12.08
▁Highlights	-12.08
▁UCBs	-12.08
▁Friday	-12.08
▁Quite	-12.0801
▁recruitment	-12.0801
▁dispos	-12.0801
stress	-12.0802
cil	-12.0802
establish	-12.0805
▁2.7%	-12.0806
rag	-12.081
▁specialisation	-12.0813
▁poll	-12.0813
▁reinvestments	-12.0815
▁160	-12.0816
maker	-12.0819
▁Assistance	-12.0824
▁illicit	-12.0824
▁synchronised	-12.0824
▁verification	-12.0825
type	-12.0832
using	-12.0833
▁developers	-12.0835
estimate	-12.0837
▁Specific	-12.0848
▁Ontario	-12.0848
▁0.4%	-12.0848
cious	-12.0851
▁static	-12.0852
▁depress	-12.0852
jun	-12.0856
tung	-12.0856
▁Ken	-12.0861
Chairman	-12.0865
▁Profit	-12.0866
▁Berg	-12.0866
▁noticed	-12.0867
ban	-12.0869
▁Assessing	-12.0869
▁curbing	-12.0871
▁GPFG	-12.0872
▁sequencing	-12.0872
▁glut	-12.0872
▁hesitate	-12.0872
metric	-12.0873
▁han	-12.0875
▁Models	-12.0876
▁180	-12.0877
enza	-12.0877
▁16%	-12.0877
▁hindered	-12.0879
▁validation	-12.088
▁contributors	-12.088
▁Awards	-12.0883
▁prescription	-12.0889
▁cur	-12.089
arch	-12.089
▁bailouts	-12.0892
▁separated	-12.0892
83	-12.0895
▁campaigns	-12.0895
ache	-12.0897
▁Nederlandsche	-12.0897
▁Opinion	-12.0897
▁cohort	-12.0897
▁Auckland	-12.0897
▁Leadership	-12.0897
▁rail	-12.0897
▁dispel	-12.0897
ET	-12.09
▁Box	-12.09
▁BNB	-12.0901
▁lingering	-12.0902
▁damaged	-12.0903
▁discontinu	-12.0908
▁MA	-12.091
▁countering	-12.091
century	-12.0914
▁page	-12.0919
77	-12.092
▁tracking	-12.092
▁embracing	-12.0921
▁memories	-12.0921
▁liable	-12.0921
▁drastically	-12.0922
▁mile	-12.0923
ING	-12.093
▁SAR	-12.093
▁Demographic	-12.0935
▁globalized	-12.0937
bad	-12.0938
worth	-12.0938
forthcoming	-12.0938
China	-12.0938
▁triggers	-12.0939
▁Basic	-12.0945
▁Assembly	-12.0945
▁TLAC	-12.0945
▁holiday	-12.0945
▁privatisation	-12.0945
▁Kredit	-12.0946
▁pending	-12.0946
▁Slow	-12.0946
ternal	-12.0947
▁Production	-12.0948
▁Discusse	-12.0948
sided	-12.0952
2022	-12.0956
▁Mai	-12.0958
▁foreigners	-12.0961
▁compensated	-12.0962
▁simplifying	-12.0969
▁narrower	-12.0969
▁Flexible	-12.097
▁Prefecture	-12.097
▁ringgit	-12.097
▁ultra	-12.097
▁mineral	-12.097
▁Robust	-12.097
▁Marc	-12.0975
zeit	-12.0976
▁acced	-12.0984
cast	-12.0987
▁Dar	-12.0988
▁resolute	-12.0988
▁principally	-12.099
asi	-12.0993
▁filled	-12.0993
▁caveat	-12.0994
▁Swap	-12.0995
▁lens	-12.0996
▁indexation	-12.0997
loan	-12.0998
hm	-12.1004
aga	-12.1004
[10]	-12.1012
▁unfortunate	-12.1012
▁resultant	-12.1013
▁credibly	-12.1013
▁Mag	-12.1014
aring	-12.1015
still	-12.1017
▁discern	-12.1019
▁adhering	-12.1019
▁champion	-12.1019
Advanc	-12.1019
▁compression	-12.102
tical	-12.1022
▁employer	-12.1025
▁indexed	-12.1033
▁absorber	-12.1033
▁[14]	-12.1037
Thank	-12.1037
▁restaurant	-12.1044
▁Flows	-12.1044
▁maxim	-12.1054
air	-12.106
▁Nov	-12.1061
▁expos	-12.1061
Market	-12.1062
▁forever	-12.1062
Me	-12.1064
▁riskiness	-12.1064
▁EFSF	-12.1066
▁Blinder	-12.1068
▁slip	-12.107
▁altering	-12.1072
ena	-12.1072
▁timeframe	-12.1074
▁mal	-12.1079
▁voices	-12.108
▁71	-12.1083
▁sending	-12.1084
hill	-12.1086
▁devise	-12.1086
consistent	-12.1091
▁Galhau	-12.1093
▁erupted	-12.1093
▁intrusive	-12.1093
▁military	-12.1093
▁pessimism	-12.1093
▁lunch	-12.1093
▁deferred	-12.1093
▁Bel	-12.1093
▁exhausted	-12.1099
800	-12.1103
▁necessitated	-12.1104
▁saved	-12.1106
▁weiter	-12.1106
▁standardization	-12.1106
▁accomplishment	-12.1106
▁5.2	-12.1112
▁villages	-12.1113
▁Alliance	-12.1118
▁Hayek	-12.1118
▁Schumpeter	-12.1118
▁redeem	-12.1118
▁Training	-12.1118
tergovernmental	-12.1118
▁harsh	-12.1118
▁delaying	-12.1118
▁crossborder	-12.1118
▁Kohn	-12.1119
▁sync	-12.1119
▁receded	-12.1122
▁ko	-12.1135
home	-12.1138
ABS	-12.114
▁disseminate	-12.1143
▁Setting	-12.1143
▁interlinkages	-12.1143
▁Reduction	-12.1143
▁star	-12.1144
▁applicant	-12.1144
▁liftoff	-12.1145
quarters	-12.1147
▁unification	-12.1148
ambi	-12.1148
stock	-12.1148
▁Fac	-12.1149
▁cite	-12.1151
▁underdeveloped	-12.1151
▁uptrend	-12.1152
▁HR	-12.1153
▁stone	-12.1153
▁planet	-12.1157
▁Present	-12.1165
▁measurable	-12.1168
▁umbrella	-12.1168
▁eager	-12.1168
▁replicate	-12.1168
▁Recommendations	-12.1168
▁neighbours	-12.1168
▁Rico	-12.1169
▁73	-12.117
▁69	-12.1179
▁Char	-12.1182
fifth	-12.1186
FDI	-12.1187
▁guaranteeing	-12.1191
▁Already	-12.1193
▁streamlining	-12.1193
▁ISO	-12.1194
▁Particularly	-12.1195
▁camp	-12.1195
▁59	-12.1197
▁postponed	-12.12
▁forecasted	-12.1201
▁lacked	-12.1203
vari	-12.1203
▁attribute	-12.1207
▁interpreting	-12.1208
producing	-12.1212
▁swing	-12.1213
▁conceivable	-12.1218
▁configuration	-12.1218
▁ethnic	-12.1218
▁Listens	-12.1218
▁Raising	-12.122
▁distinguishing	-12.122
▁Directorate	-12.122
nie	-12.122
▁enjoying	-12.1222
ancy	-12.1224
▁channelled	-12.1226
▁disconnect	-12.1227
3)	-12.1228
▁lately	-12.1228
▁Faced	-12.123
▁FR	-12.1231
cio	-12.1232
▁3.9	-12.1235
▁Ram	-12.1236
(3)	-12.1236
▁NBFC	-12.1239
around	-12.1242
▁Goodhart	-12.1243
▁tempted	-12.1243
▁strand	-12.1243
▁managerial	-12.1243
▁authorized	-12.1244
▁delegates	-12.1244
▁intraday	-12.1245
ood	-12.1247
▁Simon	-12.1252
▁publishes	-12.1256
▁Conclude	-12.1268
▁Could	-12.1268
▁reshaping	-12.1268
-2009	-12.1268
▁Division	-12.1268
▁setbacks	-12.127
▁bonuses	-12.127
▁-0.5	-12.127
▁66	-12.1279
▁enjoys	-12.1289
▁Situation	-12.1293
▁Reddy	-12.1293
▁rigorously	-12.1296
▁consent	-12.1297
supply	-12.1298
▁fruits	-12.1299
▁IRB	-12.13
▁affiliates	-12.1301
Comp	-12.1302
rde	-12.1303
▁Often	-12.1307
▁alliances	-12.1309
▁scandals	-12.1311
gy	-12.1313
▁QR	-12.1313
cum	-12.1315
▁afraid	-12.1319
▁diverging	-12.1319
PCE	-12.1319
▁night	-12.132
▁interdependent	-12.1321
▁repaid	-12.1321
▁admittedly	-12.1321
ava	-12.1329
▁GSE	-12.133
100,000	-12.1332
ette	-12.1333
▁floods	-12.1338
▁Dallas	-12.1344
▁converging	-12.1344
▁differentiation	-12.1344
▁southern	-12.1344
▁Tur	-12.1345
▁subjected	-12.1351
▁vigorously	-12.1356
81	-12.136
▁EURO	-12.1361
▁Han	-12.1369
▁suffice	-12.1369
rad	-12.1369
▁occasional	-12.1374
▁MPM	-12.1374
▁rethink	-12.1379
▁tougher	-12.138
▁firming	-12.1385
▁placement	-12.1388
▁1,000	-12.1389
▁Manager	-12.1392
▁Agricultural	-12.1395
▁LTCM	-12.1395
▁drove	-12.1395
▁frank	-12.1395
▁waning	-12.1395
▁subside	-12.1397
ira	-12.1397
▁devaluations	-12.14
pel	-12.1408
▁mercados	-12.1409
▁interrelated	-12.141
distribute	-12.1413
▁Document	-12.1415
Asset	-12.1416
Role	-12.1418
▁implicitly	-12.1419
lam	-12.142
▁candidates	-12.1425
Rat	-12.1426
▁validate	-12.1426
NC	-12.143
dependence	-12.143
view	-12.1431
(5)	-12.1434
▁(2021)	-12.1446
▁Mervyn	-12.1446
▁retrenchment	-12.1447
▁surveyed	-12.1452
nger	-12.1452
▁Arab	-12.1456
▁courts	-12.1457
author	-12.1459
competitive	-12.1467
▁pent	-12.147
▁Lautenschl	-12.1472
▁beautiful	-12.1472
▁politique	-12.1472
▁salient	-12.1472
▁outlining	-12.1472
▁signaling	-12.1473
▁imposition	-12.1473
▁grave	-12.1473
▁flatter	-12.1474
pic	-12.1475
▁minister	-12.1478
▁centred	-12.1479
▁decelerate	-12.1491
▁haircut	-12.1496
▁neighborhood	-12.1496
▁sanction	-12.1496
▁presidents	-12.1497
▁Responsibility	-12.1498
▁backbone	-12.1498
▁cliff	-12.1498
▁thriving	-12.1498
▁économique	-12.1498
▁suspicious	-12.1498
▁Overview	-12.1499
▁weakens	-12.15
▁Era	-12.1502
▁sounder	-12.1505
▁screen	-12.1508
▁contest	-12.1509
▁Weber	-12.1511
▁eminent	-12.1513
fund	-12.1514
▁Success	-12.1516
hot	-12.1518
East	-12.1523
▁Twenty	-12.1524
▁responsibly	-12.1524
▁unsound	-12.1524
▁awarded	-12.1529
▁softening	-12.1532
▁disadvantaged	-12.1533
▁outdated	-12.1534
▁reinvest	-12.1535
lick	-12.1536
▁stretched	-12.1539
▁stipulated	-12.1539
dia	-12.1543
▁solidly	-12.1543
▁originators	-12.1546
▁appreciating	-12.1549
▁Secur	-12.155
▁trick	-12.1553
▁Native	-12.1558
▁certificates	-12.1558
▁reaffirmed	-12.1559
▁Kan	-12.1562
▁Costs	-12.1564
▁commence	-12.1567
▁ideally	-12.1568
▁characterise	-12.1571
▁87	-12.1573
IBOR	-12.1576
▁petrol	-12.1576
▁music	-12.1578
▁Pu	-12.1578
▁specialists	-12.158
▁nontraditional	-12.1582
▁threatens	-12.1593
▁linear	-12.1593
▁Econometric	-12.1601
▁Encouraging	-12.1601
▁qualities	-12.1601
▁taxonomy	-12.1601
consuming	-12.1602
▁Geld	-12.1602
▁Detail	-12.1603
▁committing	-12.1603
▁informative	-12.1603
dealers	-12.1603
▁coping	-12.1605
▁metals	-12.1606
▁compiled	-12.1606
▁extraction	-12.1607
▁relieve	-12.1607
▁sticky	-12.1608
▁Chan	-12.1609
halten	-12.1609
▁somehow	-12.161
-2019	-12.1612
▁compound	-12.1616
search	-12.1619
▁Um	-12.162
▁educate	-12.1621
▁differed	-12.1622
adas	-12.1622
Level	-12.1624
▁weathered	-12.1624
▁Manuel	-12.1628
▁Shadow	-12.1628
▁visitors	-12.1629
▁shareholding	-12.1632
▁surrounded	-12.1635
▁counterfeit	-12.1638
head	-12.1639
▁inconsistency	-12.164
▁Had	-12.1643
[11]	-12.165
igkeit	-12.1653
▁Comptroller	-12.1654
▁Scenario	-12.1654
▁volatilities	-12.1654
▁Inequality	-12.1654
▁methodological	-12.1654
▁tokenised	-12.1655
▁Alongside	-12.1655
▁Zambian	-12.1657
gle	-12.1657
▁lockdowns	-12.166
▁Pol	-12.1672
▁insulate	-12.1673
assessment	-12.1676
macro	-12.1676
▁Barclays	-12.168
▁agility	-12.168
▁fragilities	-12.168
insure	-12.1683
▁Thereafter	-12.1683
▁delegated	-12.1687
▁attending	-12.1689
▁suite	-12.1691
-2022	-12.1698
ogue	-12.1705
dri	-12.1705
▁Assistant	-12.1706
▁Platform	-12.1706
▁Roadmap	-12.1706
▁Sabine	-12.1706
▁vacant	-12.1706
▁mobilize	-12.1706
water	-12.1707
▁taper	-12.1724
SL	-12.1724
ccompanying	-12.173
hard	-12.173
▁MREL	-12.1733
▁riesgo	-12.1733
▁mother	-12.1734
▁1984	-12.1734
▁Jordan	-12.1734
▁echo	-12.1735
If	-12.1736
▁CET	-12.1736
▁ceilings	-12.174
▁circulate	-12.174
▁poorest	-12.1741
▁novo	-12.1742
▁tradeoff	-12.1748
▁drawbacks	-12.1759
▁Patrick	-12.1759
3,000	-12.176
▁securitised	-12.176
▁operator	-12.1761
▁marché	-12.1761
▁mag	-12.1774
coin	-12.1776
▁damp	-12.1785
▁unacceptable	-12.1786
▁unnecessarily	-12.1786
[20]	-12.1786
▁soared	-12.1786
▁exchanging	-12.1786
▁Rock	-12.1791
▁sick	-12.1792
▁Page	-12.1795
tten	-12.1799
invest	-12.1805
employed	-12.1807
▁setup	-12.181
▁punish	-12.1812
▁Gertler	-12.1812
▁congratulations	-12.1812
▁sandbox	-12.1812
▁Visco	-12.1812
▁modalities	-12.1812
research	-12.1813
▁Investor	-12.1814
▁Presentation	-12.1815
▁commenced	-12.1819
▁350	-12.1819
▁renew	-12.182
▁None	-12.1826
easing	-12.1838
▁calibrating	-12.1839
▁nascent	-12.1839
▁Multi	-12.1839
▁Willem	-12.184
▁stores	-12.1842
ole	-12.1847
trag	-12.1851
▁God	-12.1853
▁discouraged	-12.1856
▁empowered	-12.1859
IL	-12.186
51	-12.186
▁Mandat	-12.1861
HQLA	-12.1866
edu	-12.1878
▁rob	-12.1878
▁API	-12.1879
▁struggled	-12.188
▁grounded	-12.1881
▁Karl	-12.1885
bearing	-12.1891
▁Colombia	-12.1892
▁Regardless	-12.1892
▁refining	-12.1892
▁afterwards	-12.1893
▁giant	-12.1893
▁meanwhile	-12.1893
▁drew	-12.1893
▁1974	-12.1894
▁84	-12.1904
esh	-12.1904
▁prominently	-12.1908
termism	-12.1909
▁dead	-12.191
▁comprehensively	-12.1911
▁Comment	-12.1911
▁IFC	-12.1912
▁pioneering	-12.1913
▁answered	-12.1914
compliance	-12.1917
force	-12.1919
▁Scott	-12.1919
▁Treaties	-12.1919
▁negotiating	-12.1919
▁Exclud	-12.1919
▁telephone	-12.1919
▁Madam	-12.192
▁Know	-12.1921
STR	-12.1922
▁Decisions	-12.1924
▁panics	-12.1926
▁FSF	-12.1928
▁Broadly	-12.1932
▁informing	-12.1934
MBS	-12.1934
▁embraced	-12.1939
util	-12.194
▁finished	-12.194
▁(1993)	-12.1946
▁prioritise	-12.1947
▁algorithms	-12.1948
▁0.7%	-12.1948
IFC	-12.1949
▁modification	-12.195
▁avail	-12.195
▁healthier	-12.1952
82	-12.1954
▁summarised	-12.196
rent	-12.196
▁Mal	-12.1963
▁Relative	-12.1963
▁Hall	-12.1964
▁dislocations	-12.1964
ATE	-12.1965
▁annualised	-12.1966
▁hindering	-12.1967
current	-12.1968
▁IFSB	-12.1968
tea	-12.1969
▁setters	-12.197
▁logistical	-12.1973
▁navigating	-12.1973
▁Malawi	-12.1973
▁vested	-12.1973
▁financiera	-12.1974
▁telecom	-12.1974
▁visual	-12.1975
▁aggravated	-12.1978
▁overshoot	-12.1985
▁FSA	-12.1988
▁clarifying	-12.1991
▁Discuss	-12.1993
▁hover	-12.1993
▁prohibited	-12.1994
▁hurdles	-12.1996
rel	-12.1998
PressOffice	-12.2
▁CBRT	-12.2
▁regret	-12.2
▁leasing	-12.2001
▁police	-12.2001
▁ride	-12.2002
▁Challenge	-12.2004
▁repricing	-12.2004
▁Express	-12.2006
▁ceased	-12.201
▁Cura	-12.201
▁style	-12.2012
▁underlie	-12.2012
▁Sen	-12.2013
▁named	-12.2016
pra	-12.2019
political	-12.202
▁Sam	-12.2022
compatible	-12.2026
selling	-12.2027
▁Cleveland	-12.2028
▁anticipating	-12.2028
▁minimising	-12.2028
▁scoring	-12.2028
▁Percent	-12.2028
▁letters	-12.2029
burg	-12.203
▁700	-12.2031
▁Speak	-12.2031
▁Enterprise	-12.2032
▁Practice	-12.2032
▁consulting	-12.2034
▁Team	-12.2034
▁classical	-12.2039
stop	-12.2049
▁35%	-12.2052
Impact	-12.2053
▁catastrophic	-12.2055
▁resolvability	-12.2055
▁paragraph	-12.2055
Stressed	-12.2055
▁landmark	-12.2056
▁interlinked	-12.2056
▁empowerment	-12.2057
dam	-12.2057
▁col	-12.2058
▁underlines	-12.206
▁75%	-12.2066
▁prolong	-12.2073
▁Examination	-12.2082
▁reassuring	-12.2082
/2009	-12.2082
▁interfere	-12.2083
▁answering	-12.2086
▁reinsurance	-12.2087
▁capitalism	-12.209
▁Stronger	-12.2097
▁counterfeiting	-12.2099
rule	-12.21
▁0.2%	-12.2107
▁remunerat	-12.2108
▁Eichengreen	-12.211
▁declaration	-12.211
▁nutshell	-12.211
▁tribute	-12.211
▁Deflation	-12.2111
▁0.6%	-12.2111
▁Uni	-12.2116
Employ	-12.2117
▁institutes	-12.2117
llo	-12.212
▁surcharges	-12.212
▁smallest	-12.2123
▁incentivise	-12.2126
▁seat	-12.2131
▁paradox	-12.2133
bro	-12.2134
sustaining	-12.2136
▁discrimination	-12.2137
▁flawed	-12.2137
▁logistics	-12.2137
▁abnormal	-12.2137
▁Chris	-12.2137
held	-12.2139
▁puede	-12.2144
IPS	-12.2144
▁radically	-12.2149
you	-12.215
▁unrelated	-12.2152
arse	-12.2152
▁misalignments	-12.2157
uen	-12.2159
reliance	-12.2164
▁Columbia	-12.2165
▁Memorial	-12.2165
▁Papademos	-12.2165
▁gateway	-12.2165
▁nobody	-12.2165
trust	-12.2165
SRM	-12.2168
▁74	-12.217
▁requisite	-12.2171
▁disagreement	-12.2172
▁Bri	-12.2172
▁EME	-12.2172
▁sixth	-12.2174
▁tightly	-12.2175
▁DSGE	-12.2178
▁Initial	-12.2186
▁worthy	-12.2186
▁log	-12.2189
▁synergy	-12.2192
▁unresolved	-12.2192
▁convertible	-12.2193
▁Emergency	-12.2193
▁confidential	-12.2194
▁PSD	-12.2195
▁presume	-12.2196
▁tripled	-12.2198
▁93	-12.2203
▁enabler	-12.2206
▁CRR	-12.2207
▁sharpen	-12.2213
▁aggregated	-12.222
▁SWIFT	-12.222
▁amplification	-12.222
▁Owing	-12.222
▁DFIs	-12.222
▁2007-08	-12.2221
▁1977	-12.2222
▁Forecasters	-12.2222
▁finalized	-12.2229
▁Bon	-12.223
SGP	-12.2247
▁Civil	-12.2248
▁advisable	-12.2248
▁compilation	-12.2248
▁Kevin	-12.2248
▁discourse	-12.2248
▁Sharing	-12.2249
▁strained	-12.2249
▁Shari	-12.225
arian	-12.2257
▁bailout	-12.2258
FO	-12.2258
▁recalling	-12.2259
▁overreact	-12.2261
▁[15]	-12.2264
mail	-12.2264
▁avoidance	-12.2265
▁harmonise	-12.2269
▁Related	-12.2273
▁layers	-12.2273
▁dell	-12.2274
Fiscal	-12.2275
▁assisting	-12.2275
▁PSBs	-12.2276
▁dried	-12.2276
▁infection	-12.2276
▁ensue	-12.2278
OMT	-12.2279
▁2.6%	-12.2282
▁handful	-12.2286
FP	-12.2287
ky	-12.2288
▁buyer	-12.2291
aving	-12.2294
▁4.4	-12.23
▁Kenneth	-12.2303
▁Otmar	-12.2303
▁alleviating	-12.2303
▁litigation	-12.2303
▁medicine	-12.2303
▁Reinhart	-12.2304
▁deflator	-12.2304
▁fierce	-12.2304
▁flag	-12.2305
▁fiat	-12.2309
/2008	-12.2309
▁propagate	-12.231
▁89	-12.2313
lichen	-12.2317
▁Tre	-12.2323
Net	-12.2325
-2020	-12.2326
▁Stevens	-12.233
▁Encourage	-12.2331
▁commemorat	-12.2331
▁voted	-12.2331
▁velocity	-12.2332
/2010	-12.2332
▁SVB	-12.2332
ination	-12.2335
▁Across	-12.2337
▁electronically	-12.2337
-2018	-12.2338
▁Diese	-12.2339
▁pledged	-12.234
▁emission	-12.2341
▁Alternatively	-12.2342
▁Young	-12.2346
▁meaningfully	-12.2346
▁destroy	-12.2348
▁Guindos	-12.236
▁Toronto	-12.236
▁busy	-12.236
▁curriculum	-12.236
▁decelerating	-12.236
▁enforcing	-12.236
▁stigma	-12.236
▁aggregation	-12.236
constrained	-12.236
▁Spread	-12.236
▁authentication	-12.236
EDIS	-12.236
▁Sixth	-12.2362
▁pact	-12.2363
ister	-12.2363
▁symmetrical	-12.2364
▁peaking	-12.2364
▁greener	-12.2366
▁Purchases	-12.2367
▁compromised	-12.2381
▁enthusiasm	-12.2388
▁trilemma	-12.2388
▁Imbalances	-12.2388
▁inflaci	-12.2388
▁Blue	-12.2388
▁82	-12.2388
gleich	-12.2389
-2021	-12.239
▁trial	-12.2395
▁reacting	-12.2397
▁stalled	-12.2398
atic	-12.2398
lung	-12.2399
graphic	-12.2402
▁discovered	-12.2403
UN	-12.2404
▁relax	-12.2409
▁Nu	-12.241
▁rendered	-12.241
▁divers	-12.241
En	-12.2413
▁genuinely	-12.2415
▁Entwicklung	-12.2416
▁Portfolio	-12.2416
▁SCAP	-12.2416
▁imprudent	-12.2416
▁Growing	-12.2416
information	-12.2416
▁strip	-12.2417
▁groundwork	-12.2417
though	-12.2418
▁gest	-12.2419
▁Workers	-12.2421
ago	-12.2421
▁CPIF	-12.243
▁conduits	-12.2431
monetarypolicy	-12.2434
▁flu	-12.2438
▁electric	-12.244
▁68	-12.2441
▁tie	-12.2442
▁Balkan	-12.2444
▁plazo	-12.2444
▁burdensome	-12.2446
used	-12.2446
week	-12.2447
▁Events	-12.2459
bal	-12.2466
checking	-12.2467
▁Charter	-12.2468
▁Lowe	-12.2468
▁Google	-12.2473
▁anxiety	-12.2473
▁hitherto	-12.2473
▁salary	-12.2473
▁Power	-12.2473
▁headquarters	-12.2473
originate	-12.2473
▁liberalized	-12.2474
▁Levin	-12.2474
▁tele	-12.2482
invent	-12.2487
▁encouragement	-12.2491
▁nice	-12.2492
skill	-12.2493
wp	-12.2494
▁EPC	-12.2495
▁Ali	-12.2498
▁fueled	-12.25
▁4.6	-12.2501
▁sketch	-12.2501
▁merchandise	-12.2501
▁CLS	-12.2501
▁stuck	-12.2502
▁criticised	-12.2502
▁insufficiently	-12.2502
▁Congressional	-12.2504
▁Kim	-12.2505
▁83	-12.2506
▁FSR	-12.2508
▁technically	-12.251
▁impediment	-12.2511
▁surpassed	-12.2515
▁Find	-12.252
▁Preisstabili	-12.2521
▁motivate	-12.2523
▁Did	-12.253
▁grain	-12.253
▁guardian	-12.2531
misunderstanding	-12.2531
▁distinctive	-12.2534
▁exiting	-12.2538
▁Improvement	-12.254
▁featured	-12.2541
▁Way	-12.2541
SIB	-12.2551
▁organize	-12.2551
▁overlook	-12.2558
▁Culture	-12.2558
▁victim	-12.2558
[21]	-12.2558
▁Context	-12.2559
▁opposition	-12.2559
▁rigidity	-12.2561
▁redefin	-12.2562
▁Bl	-12.2565
▁Eight	-12.2567
▁Hispanic	-12.2569
▁adaptable	-12.2576
ESA	-12.2586
▁certification	-12.2587
▁spectacular	-12.2587
▁financiero	-12.2587
▁externally	-12.2588
recession	-12.2588
key	-12.2589
▁row	-12.259
Institut	-12.2591
▁OIS	-12.2595
▁Lack	-12.2595
▁ga	-12.26
▁76	-12.2606
▁weakest	-12.2608
aciones	-12.2613
▁Inclusive	-12.2616
▁Results	-12.2616
▁metaphor	-12.2616
▁recipe	-12.2616
▁sceptical	-12.2616
▁interagency	-12.2616
▁pin	-12.2618
▁OCR	-12.2618
▁lease	-12.2619
▁passion	-12.2622
▁instituted	-12.2622
▁PMI	-12.2622
▁succession	-12.2626
▁sobre	-12.2633
▁complying	-12.2634
▁wishing	-12.2637
▁rewarding	-12.2639
USD	-12.2644
▁interoperable	-12.2645
▁scepticism	-12.2645
▁suspension	-12.2645
▁instructive	-12.2645
▁Peterson	-12.2646
[12]	-12.2647
▁NBR	-12.2647
▁CEE	-12.2651
▁77	-12.2651
▁empirically	-12.2657
▁NPAs	-12.2661
▁evidently	-12.2665
start	-12.2669
▁Whilst	-12.2674
▁occupations	-12.2674
▁statisticians	-12.2674
▁Insurers	-12.2674
▁aspire	-12.2675
▁plants	-12.2675
efficiency	-12.2676
▁mentor	-12.2677
▁Israeli	-12.2679
▁sites	-12.2681
best	-12.2683
▁comprised	-12.2687
▁confer	-12.2689
▁Decline	-12.2691
▁analyzed	-12.2692
▁108	-12.2699
hon	-12.2701
▁inflict	-12.2703
▁Efficiency	-12.2703
▁Substantial	-12.2703
▁remedial	-12.2703
▁Failure	-12.2703
▁unaffected	-12.2703
-2006	-12.2704
▁feeding	-12.2704
family	-12.2705
▁Few	-12.2706
▁delegation	-12.2706
▁bio	-12.2708
▁EMI	-12.271
▁san	-12.2711
75%	-12.2714
▁bureau	-12.2715
1.2	-12.2729
▁municipal	-12.2732
SLIDE	-12.2732
▁Channel	-12.2732
▁disbursement	-12.2732
▁overdraft	-12.2732
▁Complex	-12.2732
▁chairman	-12.2734
▁oder	-12.2734
significant	-12.2734
town	-12.2736
▁1000	-12.2742
▁Tim	-12.2748
▁ML	-12.2748
▁attest	-12.2753
700	-12.2755
▁abilities	-12.2755
▁4.7	-12.276
▁Geopolitical	-12.2761
▁Tarullo	-12.2761
▁metropolitan	-12.2761
▁0.8%	-12.2763
▁financiers	-12.2763
flexible	-12.2764
trading	-12.2764
itt	-12.2764
When	-12.2766
▁Philipp	-12.2767
▁overvaluation	-12.2771
▁suggestion	-12.2773
▁fest	-12.2776
▁Coordinat	-12.2776
EE	-12.2777
▁45%	-12.2782
enden	-12.2786
cover	-12.2787
▁licenses	-12.2789
▁Geneva	-12.2791
▁hysteresis	-12.2791
▁wallets	-12.2791
▁expire	-12.2791
▁cho	-12.2791
▁Check	-12.2791
Restoring	-12.2791
lang	-12.2791
▁Delta	-12.2791
▁Order	-12.2793
▁FEDS	-12.2799
ample	-12.2801
FTA	-12.2802
range	-12.2804
▁Stat	-12.2805
▁NPA	-12.2812
▁payout	-12.2814
▁pulled	-12.2818
zen	-12.2819
▁south	-12.282
▁incipient	-12.282
▁irrational	-12.282
▁Adapt	-12.282
▁Mill	-12.2821
▁Restructuring	-12.2821
▁denomination	-12.2823
lving	-12.2824
▁Art	-12.2827
▁Ravi	-12.283
Samuelson	-12.283
▁mercado	-12.2833
250	-12.2837
▁converged	-12.2843
▁geographically	-12.2845
▁Rest	-12.2845
▁embed	-12.285
▁Secretariat	-12.285
▁composite	-12.285
▁inducing	-12.285
▁Athens	-12.285
▁rock	-12.2851
-2004	-12.2851
▁recipients	-12.2854
▁connecting	-12.2855
▁donor	-12.2857
▁Tight	-12.2857
▁experimentation	-12.2857
▁gear	-12.286
▁17%	-12.2861
▁trip	-12.2862
NT	-12.2869
▁famously	-12.2869
ordinate	-12.287
▁hint	-12.287
ogene	-12.2871
▁dry	-12.2872
▁opted	-12.2872
▁stored	-12.2875
▁universally	-12.2878
▁Efficient	-12.2879
▁heritage	-12.2879
▁journalists	-12.2879
▁presidency	-12.2879
▁Fullani	-12.2879
▁cure	-12.288
▁permitting	-12.2881
▁1971	-12.2881
-2015	-12.2881
▁visited	-12.2886
▁disrupting	-12.2888
▁Zealanders	-12.2903
positioned	-12.2905
▁accorded	-12.2906
had	-12.2908
▁tantrum	-12.2909
PSPP	-12.2909
▁dropping	-12.2911
▁degradation	-12.2911
▁CBB	-12.2911
Current	-12.2912
▁FCA	-12.2916
▁devised	-12.2917
▁Ahead	-12.292
▁Tech	-12.2923
▁Mid	-12.2924
▁recalibrat	-12.2927
▁Tu	-12.2933
▁longstanding	-12.2935
▁fra	-12.2935
▁Stabilit	-12.2936
▁accelerator	-12.2939
▁opacity	-12.2939
▁coupon	-12.2939
▁Tools	-12.2939
Protect	-12.294
special	-12.2942
PEPP	-12.2942
lex	-12.2943
▁86	-12.2946
▁Urg	-12.2948
CRA	-12.2951
▁qualification	-12.2953
▁Limit	-12.2958
▁abate	-12.2962
▁Testimony	-12.2968
▁Thursday	-12.2968
▁Tommaso	-12.2968
▁incorporation	-12.2968
▁irreversible	-12.2968
▁sistema	-12.2968
▁Iraq	-12.2968
▁patch	-12.2968
▁compact	-12.2969
▁motives	-12.297
RTGS	-12.2972
Japan	-12.2972
five	-12.2973
▁Op	-12.2981
▁plot	-12.2984
▁warmly	-12.2985
ova	-12.2986
blog	-12.2988
HO	-12.2997
hrt	-12.2998
▁Alexander	-12.2998
▁Collateral	-12.2998
▁accommodating	-12.2998
▁lawyers	-12.2998
▁random	-12.3
▁incentivize	-12.3001
sovereign	-12.3002
EMEs	-12.3002
aria	-12.3004
▁dire	-12.3007
▁routinely	-12.3008
▁thoughtful	-12.3008
▁81	-12.3009
▁4.8	-12.3014
▁inspection	-12.3014
LM	-12.3017
bund	-12.3018
▁outpac	-12.3018
150	-12.3024
▁emphasising	-12.3026
statement	-12.3026
▁Explor	-12.3028
▁Frederic	-12.3028
▁pitfalls	-12.3028
member	-12.3028
Silicon	-12.3029
▁Chairperson	-12.3029
▁Adoption	-12.3029
▁Consolidation	-12.303
equity	-12.3032
▁UBS	-12.304
▁enormously	-12.3041
▁Muslim	-12.3042
aya	-12.3051
▁suppose	-12.3052
▁Barr	-12.3054
hung	-12.3058
▁Emmanuel	-12.3059
▁escalating	-12.3059
▁signature	-12.3059
▁upheaval	-12.3059
▁Soviet	-12.3059
▁divert	-12.3059
▁suitability	-12.3059
▁Citi	-12.3061
MB	-12.3063
uous	-12.3065
▁wonderful	-12.307
VAR	-12.3072
▁dan	-12.3073
xim	-12.3076
▁reaffirm	-12.3077
▁overshooting	-12.3084
▁auditor	-12.3088
▁Census	-12.3089
▁Machine	-12.3089
▁bankruptcies	-12.3089
▁invoicing	-12.3089
▁stimuli	-12.3089
▁stubborn	-12.3089
▁Desk	-12.3089
▁Guide	-12.309
▁tragic	-12.309
factor	-12.3094
▁subsided	-12.3098
▁compressed	-12.3099
bail	-12.3102
▁Wie	-12.3104
▁bolstering	-12.3107
▁Procedure	-12.3119
▁endowment	-12.3119
WEO	-12.3119
IG	-12.312
▁RRP	-12.3123
▁warn	-12.3123
support	-12.3124
▁confirming	-12.3124
NO	-12.3127
sighted	-12.3128
▁Mean	-12.3129
▁sponsors	-12.313
▁Develop	-12.3133
glich	-12.3141
▁13).	-12.3145
capitalised	-12.3147
▁leaning	-12.3148
▁Clarida	-12.3149
▁Ignazio	-12.3149
▁anecdotal	-12.3149
▁equivalence	-12.3149
▁liaison	-12.3149
▁repositories	-12.3149
▁excuse	-12.3149
▁Database	-12.315
▁Proper	-12.3151
▁trace	-12.3154
▁NZ	-12.3156
minded	-12.3161
Pre	-12.3162
▁paved	-12.3162
▁insider	-12.3163
hip	-12.3164
▁manifested	-12.3173
soft	-12.3178
▁Coverage	-12.318
▁Michigan	-12.318
▁democracies	-12.318
▁attenuat	-12.318
▁overvalued	-12.318
▁robustly	-12.3183
▁Unless	-12.3184
▁pré	-12.3185
▁"...	-12.3188
▁reshape	-12.3195
▁withdrawing	-12.3195
mir	-12.3196
▁accountants	-12.3199
▁Vo	-12.3203
▁confine	-12.3204
▁complain	-12.3204
▁0.1%	-12.321
▁crystal	-12.321
▁Introduc	-12.321
▁inequalities	-12.3211
▁Walter	-12.3211
▁precious	-12.3213
BLS	-12.3213
profit	-12.3214
liquidity	-12.3216
speed	-12.3217
Scale	-12.322
och	-12.3221
▁Aug	-12.3223
ief	-12.3225
▁Auto	-12.3226
Pay	-12.3227
▁importers	-12.3229
▁Acknowledg	-12.324
▁BRRD	-12.3241
▁Bailey	-12.3241
▁Expenditure	-12.3241
▁expansive	-12.3241
▁reservation	-12.3241
▁mood	-12.3242
eque	-12.3242
▁coast	-12.3243
▁2.9%	-12.3247
▁specialization	-12.3253
▁Che	-12.3255
▁unfolded	-12.3262
gehen	-12.3267
▁Tom	-12.327
▁Borrowing	-12.3272
▁ZLB	-12.3272
▁club	-12.3272
temporal	-12.3274
▁favourably	-12.3274
iest	-12.3281
▁repeating	-12.3291
fair	-12.3292
▁ADB	-12.3295
terconnections	-12.3302
▁Confederation	-12.3303
▁Taiwan	-12.3303
▁Wachstum	-12.3303
▁hopeful	-12.3304
▁decoupling	-12.3305
▁fitting	-12.3307
Public	-12.3308
▁Actually	-12.3309
turn	-12.331
▁materialisation	-12.331
▁5.1	-12.332
▁bureaus	-12.3321
made	-12.3323
▁tune	-12.3333
▁fabric	-12.3334
▁psychological	-12.3334
▁ruling	-12.3334
▁Stabilization	-12.3334
▁Eric	-12.3341
▁Traditionally	-12.3342
▁Gett	-12.3343
▁searching	-12.3346
▁tries	-12.335
4,000	-12.3351
▁erst	-12.3352
▁minute	-12.3353
▁parameter	-12.3354
OF	-12.3356
▁Jersey	-12.3365
▁[16]	-12.3365
▁custodian	-12.3365
pronged	-12.3365
Border	-12.3365
▁presumption	-12.3366
▁sitting	-12.3367
▁recurrent	-12.3368
two	-12.337
▁traced	-12.3372
▁restart	-12.3372
▁Rise	-12.3372
▁exploitation	-12.3374
▁AAA	-12.3375
itude	-12.3381
hood	-12.3382
▁dysfunctional	-12.3383
▁elevate	-12.3383
▁celebrated	-12.3384
▁negotiation	-12.3385
▁contra	-12.3388
track	-12.3392
▁5.3	-12.3393
▁ascertain	-12.3396
▁regression	-12.3396
▁parliamentary	-12.3397
▁Super	-12.3398
▁backup	-12.3401
bject	-12.3407
awa	-12.3415
▁Gro	-12.342
▁Beijing	-12.3427
▁Dialogue	-12.3427
▁Temporary	-12.3427
▁constituent	-12.3427
▁harvest	-12.3427
▁leisure	-12.3427
▁steam	-12.3427
▁Commonwealth	-12.3427
▁overlapping	-12.3428
fencing	-12.3428
▁Kiley	-12.3428
▁Measurement	-12.3428
▁Property	-12.3428
▁mehr	-12.3433
▁correspondingly	-12.3436
▁treaty	-12.3437
▁channelling	-12.3437
who	-12.3442
▁amend	-12.3442
▁appoint	-12.3444
▁outperform	-12.3444
▁narrowly	-12.3448
▁faithful	-12.3449
Of	-12.3451
▁foundational	-12.3452
▁Minneapolis	-12.3459
▁activation	-12.3459
▁nurturing	-12.3459
▁provincial	-12.3459
▁stylised	-12.3459
▁Roundtable	-12.3459
▁Establishment	-12.3459
RD	-12.3461
Brexit	-12.3465
While	-12.3465
nonmanufacturing	-12.3471
▁cold	-12.3473
▁Rose	-12.3478
▁affiliate	-12.3481
tivo	-12.3486
▁provinces	-12.3486
▁usher	-12.3489
▁Knowledge	-12.349
▁immigrant	-12.349
▁reliably	-12.349
▁visibility	-12.349
▁wichtig	-12.349
▁worries	-12.349
▁vaccines	-12.3491
▁sehr	-12.3493
wert	-12.3494
Securities	-12.3497
burn	-12.3498
▁plots	-12.3506
▁denominations	-12.3508
Over	-12.3514
▁pushes	-12.3519
▁Diokno	-12.3522
▁advertise	-12.3522
▁eroding	-12.3522
▁geldpolitische	-12.3522
▁homogeneous	-12.3522
▁ramifications	-12.3522
▁synthetic	-12.3522
▁variance	-12.3522
▁voluntarily	-12.3522
▁Multilateral	-12.3522
▁0.9%	-12.3522
▁clock	-12.3523
▁farming	-12.3528
chartered	-12.3534
▁automat	-12.3541
▁titled	-12.3543
▁mirrored	-12.3546
▁augmented	-12.3547
▁apartment	-12.3553
▁Diversity	-12.3553
▁arbitrary	-12.3553
▁disincentive	-12.3553
▁dispersed	-12.3553
▁halved	-12.3553
▁Beginn	-12.3553
▁brick	-12.3555
▁Nation	-12.3555
▁subtle	-12.3555
1.4	-12.3556
▁corporation	-12.3576
▁detriment	-12.3579
IE	-12.3584
▁gloom	-12.3585
▁Expected	-12.3585
▁literally	-12.3585
▁outlets	-12.3585
▁depositories	-12.3586
Sustain	-12.3586
mentioned	-12.3592
peer	-12.3602
▁livelihoods	-12.3605
mandate	-12.3614
▁Benchmark	-12.3617
▁Consequences	-12.3617
▁Deficit	-12.3617
▁semiconductor	-12.3617
▁yuan	-12.3617
▁abundance	-12.3617
▁stifle	-12.3617
awn	-12.3618
▁subtract	-12.3619
▁terminals	-12.362
pf	-12.3624
[13]	-12.3624
TL	-12.3626
existing	-12.3626
food	-12.3628
▁Feb	-12.3628
UK	-12.3629
zone	-12.3631
/19	-12.3635
▁Mayor	-12.3638
▁Certain	-12.3642
iro	-12.3643
haus	-12.3644
gabe	-12.3645
▁Incidentally	-12.3649
▁Jeremy	-12.3649
▁SEACEN	-12.3649
▁exponential	-12.3649
▁infrastructural	-12.3649
▁yardstick	-12.3649
▁Virtual	-12.3649
[22]	-12.3649
▁5.6	-12.3652
▁Essentially	-12.3652
▁teach	-12.3658
▁sparked	-12.3659
▁institute	-12.3666
▁Arabia	-12.3678
tte	-12.368
▁Distribution	-12.3681
▁Intermediation	-12.3681
▁prevalence	-12.3681
▁Stark	-12.3681
▁Wolf	-12.3681
▁Strategies	-12.3681
mate	-12.3682
▁empowering	-12.3682
▁irre	-12.3685
LTROs	-12.3689
▁Estate	-12.3689
ignit	-12.3699
▁retire	-12.3702
▁bounce	-12.3706
▁dictate	-12.3706
▁Optimal	-12.3708
▁Relations	-12.3713
▁Academy	-12.3713
▁Krugman	-12.3713
▁Museum	-12.3713
▁focal	-12.3713
▁populist	-12.3713
▁medida	-12.3713
▁blurred	-12.3713
▁emanate	-12.3713
6,000	-12.3719
pression	-12.3719
optimal	-12.372
Importance	-12.3721
auf	-12.3723
▁brighter	-12.3723
Recent	-12.3723
dealer	-12.3724
▁Preis	-12.3726
▁discharge	-12.3727
▁benefitted	-12.3728
▁Melbourne	-12.3745
▁Securitisation	-12.3745
▁alleviation	-12.3745
[...]
